{"[PAD]":0,"[BOS]":1,"[EOS]":2,"[UNK]":3,"                               ":4,"                              ":5,"                             ":6,"                            ":7,"                           ":8,"                          ":9,"                         ":10,"                        ":11,"                       ":12,"                      ":13,"                     ":14,"                    ":15,"                   ":16,"                  ":17,"                 ":18,"                ":19,"               ":20,"              ":21,"             ":22,"            ":23,"           ":24,"          ":25,"         ":26,"        ":27,"       ":28,"      ":29,"     ":30,"    ":31,"   ":32,"  ":33,"\t\t\t\t\t\t\t\t\t":34,"\t\t\t\t\t\t\t\t":35,"\t\t\t\t\t\t\t":36,"\t\t\t\t\t\t":37,"\t\t\t\t\t":38,"\t\t\t\t":39,"\t\t\t":40,"\t\t":41,"<|endoftext|>":42,"<|c|>":43,"<|c++|>":44,"<|python|>":45,"<|javascript|>":46,"<|markdown|>":47,"<|html|>":48,"<|css|>":49,"<|vue|>":50,"<|java|>":51,"PI:URL":52,"PI:EMAIL":53,"PI:ACCOUNT_NUM":54,"PI:PHONE_NUM":55,"PI:BUSINESS_NUM":56,"PI:ANNON":57,"PI:KEY":58,"PI:ID":59,"PI:IP_ADDRESS":60,"PI:USER":61,"[unused0]":62,"[unused1]":63,"[unused2]":64,"[unused3]":65,"[unused4]":66,"[unused5]":67,"[unused6]":68,"[unused7]":69,"[unused8]":70,"[unused9]":71,"[unused10]":72,"[unused11]":73,"[unused12]":74,"[unused13]":75,"[unused14]":76,"[unused15]":77,"[unused16]":78,"[unused17]":79,"[unused18]":80,"[unused19]":81,"[unused20]":82,"[unused21]":83,"[unused22]":84,"[unused23]":85,"[unused24]":86,"[unused25]":87,"[unused26]":88,"[unused27]":89,"[unused28]":90,"[unused29]":91,"[unused30]":92,"[unused31]":93,"[unused32]":94,"[unused33]":95,"[unused34]":96,"[unused35]":97,"[unused36]":98,"[unused37]":99,"[unused38]":100,"[unused39]":101,"[unused40]":102,"[unused41]":103,"[unused42]":104,"[unused43]":105,"[unused44]":106,"[unused45]":107,"[unused46]":108,"[unused47]":109,"[unused48]":110,"[unused49]":111,"[unused50]":112,"[unused51]":113,"[unused52]":114,"[unused53]":115,"[unused54]":116,"[unused55]":117,"[unused56]":118,"[unused57]":119,"[unused58]":120,"[unused59]":121,"[unused60]":122,"[unused61]":123,"[unused62]":124,"[unused63]":125,"[unused64]":126,"[unused65]":127,"[unused66]":128,"[unused67]":129,"[unused68]":130,"[unused69]":131,"[unused70]":132,"[unused71]":133,"[unused72]":134,"[unused73]":135,"[unused74]":136,"[unused75]":137,"[unused76]":138,"[unused77]":139,"[unused78]":140,"[unused79]":141,"[unused80]":142,"[unused81]":143,"[unused82]":144,"[unused83]":145,"[unused84]":146,"[unused85]":147,"[unused86]":148,"[unused87]":149,"[unused88]":150,"[unused89]":151,"[unused90]":152,"[unused91]":153,"[unused92]":154,"[unused93]":155,"[unused94]":156,"[unused95]":157,"[unused96]":158,"[unused97]":159,"[unused98]":160,"[unused99]":161,"[extra_id_0]":162,"[extra_id_1]":163,"[extra_id_2]":164,"[extra_id_3]":165,"[extra_id_4]":166,"[extra_id_5]":167,"[extra_id_6]":168,"[extra_id_7]":169,"[extra_id_8]":170,"[extra_id_9]":171,"[extra_id_10]":172,"[extra_id_11]":173,"[extra_id_12]":174,"[extra_id_13]":175,"[extra_id_14]":176,"[extra_id_15]":177,"[extra_id_16]":178,"[extra_id_17]":179,"[extra_id_18]":180,"[extra_id_19]":181,"[extra_id_20]":182,"[extra_id_21]":183,"[extra_id_22]":184,"[extra_id_23]":185,"[extra_id_24]":186,"[extra_id_25]":187,"[extra_id_26]":188,"[extra_id_27]":189,"[extra_id_28]":190,"[extra_id_29]":191,"[extra_id_30]":192,"[extra_id_31]":193,"[extra_id_32]":194,"[extra_id_33]":195,"[extra_id_34]":196,"[extra_id_35]":197,"[extra_id_36]":198,"[extra_id_37]":199,"[extra_id_38]":200,"[extra_id_39]":201,"[extra_id_40]":202,"[extra_id_41]":203,"[extra_id_42]":204,"[extra_id_43]":205,"[extra_id_44]":206,"[extra_id_45]":207,"[extra_id_46]":208,"[extra_id_47]":209,"[extra_id_48]":210,"[extra_id_49]":211,"[extra_id_50]":212,"[extra_id_51]":213,"[extra_id_52]":214,"[extra_id_53]":215,"[extra_id_54]":216,"[extra_id_55]":217,"[extra_id_56]":218,"[extra_id_57]":219,"[extra_id_58]":220,"[extra_id_59]":221,"[extra_id_60]":222,"[extra_id_61]":223,"[extra_id_62]":224,"[extra_id_63]":225,"[extra_id_64]":226,"[extra_id_65]":227,"[extra_id_66]":228,"[extra_id_67]":229,"[extra_id_68]":230,"[extra_id_69]":231,"[extra_id_70]":232,"[extra_id_71]":233,"[extra_id_72]":234,"[extra_id_73]":235,"[extra_id_74]":236,"[extra_id_75]":237,"[extra_id_76]":238,"[extra_id_77]":239,"[extra_id_78]":240,"[extra_id_79]":241,"[extra_id_80]":242,"[extra_id_81]":243,"[extra_id_82]":244,"[extra_id_83]":245,"[extra_id_84]":246,"[extra_id_85]":247,"[extra_id_86]":248,"[extra_id_87]":249,"[extra_id_88]":250,"[extra_id_89]":251,"[extra_id_90]":252,"[extra_id_91]":253,"[extra_id_92]":254,"[extra_id_93]":255,"[extra_id_94]":256,"[extra_id_95]":257,"[extra_id_96]":258,"[extra_id_97]":259,"[extra_id_98]":260,"[extra_id_99]":261,"[extra_id_100]":262,"[extra_id_101]":263,"[extra_id_102]":264,"[extra_id_103]":265,"[extra_id_104]":266,"[extra_id_105]":267,"[extra_id_106]":268,"[extra_id_107]":269,"[extra_id_108]":270,"[extra_id_109]":271,"[extra_id_110]":272,"[extra_id_111]":273,"[extra_id_112]":274,"[extra_id_113]":275,"[extra_id_114]":276,"[extra_id_115]":277,"[extra_id_116]":278,"[extra_id_117]":279,"[extra_id_118]":280,"[extra_id_119]":281,"[extra_id_120]":282,"[extra_id_121]":283,"[extra_id_122]":284,"[extra_id_123]":285,"[extra_id_124]":286,"[extra_id_125]":287,"[extra_id_126]":288,"[extra_id_127]":289,"[extra_id_128]":290,"[extra_id_129]":291,"[extra_id_130]":292,"[extra_id_131]":293,"[extra_id_132]":294,"[extra_id_133]":295,"[extra_id_134]":296,"[extra_id_135]":297,"[extra_id_136]":298,"[extra_id_137]":299,"[extra_id_138]":300,"[extra_id_139]":301,"[extra_id_140]":302,"[extra_id_141]":303,"[extra_id_142]":304,"[extra_id_143]":305,"[extra_id_144]":306,"[extra_id_145]":307,"[extra_id_146]":308,"[extra_id_147]":309,"[extra_id_148]":310,"[extra_id_149]":311,"[extra_id_150]":312,"[extra_id_151]":313,"[extra_id_152]":314,"[extra_id_153]":315,"[extra_id_154]":316,"[extra_id_155]":317,"[extra_id_156]":318,"[extra_id_157]":319,"[extra_id_158]":320,"[extra_id_159]":321,"[extra_id_160]":322,"[extra_id_161]":323,"[extra_id_162]":324,"[extra_id_163]":325,"[extra_id_164]":326,"[extra_id_165]":327,"[extra_id_166]":328,"[extra_id_167]":329,"[extra_id_168]":330,"[extra_id_169]":331,"[extra_id_170]":332,"[extra_id_171]":333,"[extra_id_172]":334,"[extra_id_173]":335,"[extra_id_174]":336,"[extra_id_175]":337,"[extra_id_176]":338,"[extra_id_177]":339,"[extra_id_178]":340,"[extra_id_179]":341,"[extra_id_180]":342,"[extra_id_181]":343,"[extra_id_182]":344,"[extra_id_183]":345,"[extra_id_184]":346,"[extra_id_185]":347,"[extra_id_186]":348,"[extra_id_187]":349,"[extra_id_188]":350,"</tool_call>":351,"<tool_call>":352,"</tool_result>":353,"<tool_result>":354,"</think>":355,"<think>":356,"[|system|]":357,"[|tool|]":358,"[|assistant|]":359,"[|user|]":360,"[|endofturn|]":361,"!":362,"\"":363,"#":364,"$":365,"%":366,"&":367,"'":368,"(":369,")":370,"*":371,"+":372,",":373,"-":374,".":375,"/":376,"0":377,"1":378,"2":379,"3":380,"4":381,"5":382,"6":383,"7":384,"8":385,"9":386,":":387,";":388,"<":389,"=":390,">":391,"?":392,"@":393,"A":394,"B":395,"C":396,"D":397,"E":398,"F":399,"G":400,"H":401,"I":402,"J":403,"K":404,"L":405,"M":406,"N":407,"O":408,"P":409,"Q":410,"R":411,"S":412,"T":413,"U":414,"V":415,"W":416,"X":417,"Y":418,"Z":419,"[":420,"\\":421,"]":422,"^":423,"_":424,"`":425,"a":426,"b":427,"c":428,"d":429,"e":430,"f":431,"g":432,"h":433,"i":434,"j":435,"k":436,"l":437,"m":438,"n":439,"o":440,"p":441,"q":442,"r":443,"s":444,"t":445,"u":446,"v":447,"w":448,"x":449,"y":450,"z":451,"{":452,"|":453,"}":454,"~":455,"¡":456,"¢":457,"£":458,"¤":459,"¥":460,"¦":461,"§":462,"¨":463,"©":464,"ª":465,"«":466,"¬":467,"®":468,"¯":469,"°":470,"±":471,"²":472,"³":473,"´":474,"µ":475,"¶":476,"·":477,"¸":478,"¹":479,"º":480,"»":481,"¼":482,"½":483,"¾":484,"¿":485,"À":486,"Á":487,"Â":488,"Ã":489,"Ä":490,"Å":491,"Æ":492,"Ç":493,"È":494,"É":495,"Ê":496,"Ë":497,"Ì":498,"Í":499,"Î":500,"Ï":501,"Ð":502,"Ñ":503,"Ò":504,"Ó":505,"Ô":506,"Õ":507,"Ö":508,"×":509,"Ø":510,"Ù":511,"Ú":512,"Û":513,"Ü":514,"Ý":515,"Þ":516,"ß":517,"à":518,"á":519,"â":520,"ã":521,"ä":522,"å":523,"æ":524,"ç":525,"è":526,"é":527,"ê":528,"ë":529,"ì":530,"í":531,"î":532,"ï":533,"ð":534,"ñ":535,"ò":536,"ó":537,"ô":538,"õ":539,"ö":540,"÷":541,"ø":542,"ù":543,"ú":544,"û":545,"ü":546,"ý":547,"þ":548,"ÿ":549,"Ā":550,"ā":551,"Ă":552,"ă":553,"Ą":554,"ą":555,"Ć":556,"ć":557,"Ĉ":558,"ĉ":559,"Ċ":560,"ċ":561,"Č":562,"č":563,"Ď":564,"ď":565,"Đ":566,"đ":567,"Ē":568,"ē":569,"Ĕ":570,"ĕ":571,"Ė":572,"ė":573,"Ę":574,"ę":575,"Ě":576,"ě":577,"Ĝ":578,"ĝ":579,"Ğ":580,"ğ":581,"Ġ":582,"ġ":583,"Ģ":584,"ģ":585,"Ĥ":586,"ĥ":587,"Ħ":588,"ħ":589,"Ĩ":590,"ĩ":591,"Ī":592,"ī":593,"Ĭ":594,"ĭ":595,"Į":596,"į":597,"İ":598,"ı":599,"Ĳ":600,"ĳ":601,"Ĵ":602,"ĵ":603,"Ķ":604,"ķ":605,"ĸ":606,"Ĺ":607,"ĺ":608,"Ļ":609,"ļ":610,"Ľ":611,"ľ":612,"Ŀ":613,"ŀ":614,"Ł":615,"ł":616,"Ń":617,"th":618,"Ġa":619,"Ġí":620,"in":621,"Ġth":622,"er":623,"Ġ,":624,"ëĭ":625,"on":626,"Ġs":627,"re":628,"Ġthe":629,"Ġíķ":630,"ìĹ":631,"at":632,"Ŀ´":633,"ìĿ´":634,"en":635,"Ġo":636,"Ġc":637,"ê°":638,"ìŀ":639,"ĠìĹ":640,"ê³":641,"Ġw":642,"ëĭ¤":643,"Ġp":644,"es":645,"ëĬ":646,"or":647,"is":648,"ed":649,"ĠìĿ´":650,"Ġf":651,"ìł":652,"ìķ":653,"ì§":654,"Ġb":655,"an":656,"ëĬĶ":657,"al":658,"ìĦ":659,"Ġm":660,"Ġd":661,"Ġan":662,"ĠëĬĶ":663,"ti":664,"to":665,"Ġin":666,"Ġê³":667,"ing":668,"Ġê°":669,"Ġof":670,"ë§":671,"Ġ-":672,"ìĭ":673,"ar":674,"ìļ":675,"ê²":676,"Ġìŀ":677,"Ġh":678,"ou":679,"ĠìĹĲ":680,"Ġto":681,"ëĤ":682,"Ġìķ":683,"ê¸":684,"ëı":685,"Ġand":686,"le":687,"Ġ(":688,"as":689,"it":690,"Ġíķĺ":691,"ìĸ":692,"Ġ)":693,"Ġëĭ¤":694,"ĿĦ":695,"ìĿĦ":696,"ro":697,"ì§Ģ":698,"ĠìĿĦ":699,"ic":700,"ë¡":701,"ëĵ":702,"Ġìł":703,"Ġê³ł":704,"Ġê²":705,"ë°":706,"ìľ":707,"Ġë§":708,"Ġn":709,"Ġre":710,"Ġe":711,"ìĦľ":712,"Ġê°Ģ":713,"Ŀ¼":714,"ë¡ľ":715,"Ġl":716,"ë¦":717,"el":718,"ìĤ":719,"ëıĦ":720,"ìĸ´":721,"ê¸°":722,"ent":723,"ë³":724,"ë¥":725,"ion":726,"Ġìĭ":727,"ìĺ":728,"Ŀĺ":729,"ìĿĺ":730,"ĿĢ":731,"ìĿĢ":732,"ëĭĪ":733,"ìĬ":734,"Ġìľ":735,"ĠìĿĢ":736,"ë¶":737,"Ġ\"":738,"ëį":739,"ìļĶ":740,"Ġ'":741,"om":742,"ac":743,"Ġëĵ":744,"Ġg":745,"ec":746,"us":747,"êµ":748,"ìĥ":749,"ê·":750,"ĠìĿĺ":751,"ĠT":752,"Ġ_":753,"ĠëĤ":754,"Ġë°":755,"Ġ:":756,"íķ":757,"et":758,"il":759,"ë¦¬":760,"ë¬":761,"ìĪ":762,"ë©":763,"Ġíķľ":764,"ìĤ¬":765,"id":766,"Ġìĸ´":767,"ĠI":768,"ĠëıĦ":769,"tr":770,"ĠS":771,"Ġis":772,"ĠìŀĪ":773,"Ġë¥":774,"Ġì§Ģ":775,"tion":776,"ve":777,"Ġë³":778,"Ġë¥¼":779,"ĠA":780,"ation":781,"ol":782,"ig":783,"ĠC":784,"ĠìķĦ":785,"ëł":786,"Ġâ":787,"am":788,"ëĿ¼":789,"ur":790,"Ġfor":791,"ëª":792,"ìĽ":793,"Ġìĺ":794,"ly":795,"ì£":796,"Ŀ¸":797,"ìĿ¸":798,"ê·¸":799,"ìĪĺ":800,"Ġ=":801,"ow":802,"he":803,"os":804,"ê±":805,"Ġê¸°":806,"Ġon":807,"im":808,"ĮĢ":809,"ĠâĢ":810,"ëŀ":811,"Ġìľ¼":812,"ter":813,"ad":814,"un":815,"ëĮĢ":816,"Ġthat":817,"ver":818,"ëĭĪëĭ¤":819,"ith":820,"Ġbe":821,"ut":822,"ì£¼":823,"ul":824,"Ġë¶":825,"Ġëĵ¤":826,"ot":827,"ce":828,"Ġy":829,"ìĬ¤":830,"ì¹":831,"ì²":832,"ì°":833,"Ġìĭľ":834,"ay":835,"ĠìĦ":836,"ëĲ":837,"ë©´":838,"Ġwh":839,"ĠëĲ":840,"Ġ/":841,"ìĨ":842,"Ġcon":843,"Ġíķ´":844,"ë²":845,"Ġë³´":846,"ëŁ":847,"ĠìĤ¬":848,"ìĻ":849,"Ġas":850,"Ġwith":851,"ĠM":852,"ê³ł":853,"ĠP":854,"Ġê·¸":855,"Ġr":856,"Ġv":857,"ìĿ¼":858,"Ġìĥ":859,"Ġëį":860,"ir":861,"Ġpro":862,"Ġ!":863,"ë¹":864,"ch":865,"Ġëª":866,"od":867,"ĠìĪĺ":868,"Ġê²Į":869,"Ġal":870,"if":871,"Ġê±":872,"Ġìľ¼ë¡ľ":873,"Ġst":874,"ì¤":875,"ĠB":876,"em":877,"Ġëĭ":878,"ëĦ":879,"ere":880,"ĠëĤĺ":881,"--":882,"Ġíĸ":883,"ag":884,"Ġit":885,"Ġ*":886,"êµ¬":887,"ê¹":888,"ate":889,"ab":890,"Ġë¡ľ":891,"um":892,"ĠìĿ¸":893,"ts":894,"Ġ\\":895,"ëį°":896,"Ġì§":897,"ĠF":898,"Ġcom":899,"pp":900,"Ġì£¼":901,"ëĤĺ":902,"ĠD":903,"Ġyou":904,"ê°Ģ":905,"qu":906,"st":907,"Ġ?":908,"ì¡":909,"Ġex":910,"Ġ}":911,"ĠìĻ":912,"Ġor":913,"Ġ$":914,"ĠëĮĢ":915,"ìĽĲ":916,"ë¯":917,"ëħ":918,"ĠH":919,"ĠìĹĲìĦľ":920,"ain":921,"res":922,"ers":923,"Ġê²ĥ":924,"Ġwas":925,"Ġë§Į":926,"ì¢":927,"Ġë©´":928,"ĠR":929,"ĠëĿ¼":930,"ë¬´":931,"ĠíĸĪ":932,"ĠW":933,"ess":934,"ĠëĦ":935,"ì¶":936,"Ġare":937,"ĠN":938,"ĠL":939,"Ġ{":940,"ìŀ¥":941,"ìŀĲ":942,"Ġì¤":943,"ĠThe":944,"Ġì°":945,"Ġde":946,"Ġsu":947,"ĠìŀĲ":948,"igh":949,"Ġ]":950,"..":951,"Ġat":952,"rom":953,"ìĭľ":954,"ĠìĿ¼":955,"Ġby":956,"ĠìĹĪ":957,"Ġê³¼":958,"ĠìĬ":959,"ity":960,"ë¹Ħ":961,"ìļ°":962,"se":963,"ìĨĮ":964,"Ġk":965,"ĠE":966,"Ġ;":967,"and":968,"Ġì¢":969,"ĠëĲĺ":970,"oc":971,"oun":972,"ment":973,"Ġ[":974,"ë¬¸":975,"ld":976,"ëıĻ":977,"ĠG":978,"est":979,"Ġus":980,"ore":981,"Ġtr":982,"ê´":983,"end":984,"µëĭĪëĭ¤":985,"ri":986,"ĠìłĦ":987,"ĠíĻ":988,"Ġë¶Ģ":989,"ë¨":990,"Ġë²":991,"Ġìłķ":992,"Ġch":993,"Ġha":994,"op":995,"ap":996,"Ġ~":997,"Ġì²":998,"íķ´":999,"Ġsh":1000,"uc":1001,"ìłķ":1002,"ill":1003,"Ġthis":1004,"Ġfrom":1005,"ê¹Į":1006,"ëĶ":1007,"ì¹ĺ":1008,"ak":1009,"ĠâĢĻ":1010,"íĻ":1011,"tic":1012,"íĬ":1013,"Ġne":1014,"Ġìłģ":1015,"te":1016,"Ġnot":1017,"ìļ©":1018,"Ġse":1019,"ther":1020,"Ġ..":1021,"Ġê±°":1022,"ìķĦ":1023,"Ġwe":1024,"ure":1025,"Ġac":1026,"Ġle":1027,"Ġhe":1028,"ìĥģ":1029,"ëŁ¬":1030,"êµŃ":1031,"ted":1032,"ëķ":1033,"ud":1034,"ĠìĹ¬":1035,"Ġíĺ":1036,"ãģ":1037,"ĠìĬµëĭĪëĭ¤":1038,"ĿĮ":1039,"ìĿĮ":1040,"Ġun":1041,"ì¡°":1042,"ë§Į":1043,"íĥ":1044,"ĠO":1045,"ĠëĬĶëį°":1046,"ĠëįĶ":1047,"Ġë§Ī":1048,"Ġsp":1049,"ìłľ":1050,"Ġíķł":1051,"Ġìĺ¤":1052,"ë¯¸":1053,"íĺ":1054,"ant":1055,"Ġj":1056,"iv":1057,"Ġìłľ":1058,"Ġë¨":1059,"ê²Į":1060,"ëł¤":1061,"ell":1062,"ated":1063,"ì¦":1064,"Ġëķ":1065,"pl":1066,"íĬ¸":1067,"Ġ>":1068,"Ġu":1069,"tim":1070,"ge":1071,"Ġhave":1072,"ty":1073,"ë£":1074,"íķľ":1075,"all":1076,"Ġres":1077,"ist":1078,"ib":1079,"ĠëĤ´":1080,"ë¶Ģ":1081,"ĠìĻĢ":1082,"Ġëħ":1083,"ĠìķĪ":1084,"ine":1085,"ort":1086,"our":1087,"ëĳ":1088,"Ġê¸":1089,"ff":1090,"og":1091,"ê°Ħ":1092,"Ġcan":1093,"ê´Ģ":1094,"ould":1095,"Ġ+":1096,"Ġim":1097,"Ġìĸ":1098,"Ġë©":1099,"ĠU":1100,"Ġcl":1101,"ight":1102,"ich":1103,"Ġì¢ĭ":1104,"ĠëķĮ":1105,"Ġëª¨":1106,"ĠìĹĨ":1107,"ĠTh":1108,"Ġme":1109,"Ġìŀħ":1110,"per":1111,"ĠìĥĿ":1112,"ë¬¼":1113,"ome":1114,"ally":1115,"íĸ":1116,"ëŀĺ":1117,"ard":1118,"Ġê°Ļ":1119,"ue":1120,"ame":1121,"íŀ":1122,"ĠIn":1123,"ĠìĦľ":1124,"ìļ´":1125,"Ġì¤ĳ":1126,"iz":1127,"age":1128,"Ġå":1129,"íķĺ":1130,"Ġcomp":1131,"Ħ°":1132,"Ġad":1133,"ack":1134,"Ġì¶":1135,"----":1136,"ìķ¼":1137,"Ġpl":1138,"ĠìĦ¸":1139,"Ġen":1140,"der":1141,"Ġìĥģ":1142,"Ġpar":1143,"ĠìľĦ":1144,"ĠìķĬ":1145,"ì§Ħ":1146,"ëĵľ":1147,"ies":1148,"Ġab":1149,"ĠJ":1150,"Ġë¶Ħ":1151,"ĠìĤ":1152,"able":1153,"Ġêµ¬":1154,"are":1155,"Ġë°Ķ":1156,"íŀĪ":1157,"ĠìĬ¤":1158,"ìłĦ":1159,"ive":1160,"ļĮ":1161,"Ġë¨¹":1162,"ĠíĮ":1163,"gh":1164,"ie":1165,"Ġdis":1166,"ass":1167,"ect":1168,"Ġíı":1169,"ence":1170,"Ġìĸ´ìļĶ":1171,"Ġê³µ":1172,"íĦ°":1173,"ans":1174,"Ġìĭł":1175,"Ġall":1176,"Ġar":1177,"orm":1178,"ĠíĶ":1179,"Ġë§İ":1180,"ial":1181,"Ġì¡°":1182,"ĠìĨĮ":1183,"Ġapp":1184,"íĶ":1185,"ase":1186,"Ġì¹":1187,"Ġê²½":1188,"out":1189,"Ġ^":1190,"ĠÂ":1191,"ĠëĶ":1192,"ound":1193,"Ġwere":1194,"Ġwhich":1195,"Ĩµ":1196,"Ġ%":1197,"ide":1198,"ip":1199,"ë§Ī":1200,"ëĳĲ":1201,"Ġë¹Ħ":1202,"fer":1203,"Ġíĥ":1204,"Ġwor":1205,"ign":1206,"ìħ":1207,"Ġê°ľ":1208,"Ġëįĺ":1209,"ìĦ±":1210,"ach":1211,"ĠìĽĲ":1212,"ous":1213,"one":1214,"ëģ":1215,"Ġë§Ĳ":1216,"Ġë":1217,"ok":1218,"ĽĦ":1219,"ģ¬":1220,"Ġì§Ħ":1221,"Ġëĵ±":1222,"íĮ":1223,"Ġbut":1224,"ê¸Ī":1225,"ĠK":1226,"ĠëĭĪ":1227,"ì´":1228,"ĠìłĢ":1229,"ath":1230,"ost":1231,"ations":1232,"Ġhas":1233,"ë¥´":1234,"ìĺ¤":1235,"ough":1236,"ition":1237,"av":1238,"Ġi":1239,"==":1240,"ong":1241,"ì½":1242,"Ġinc":1243,"êµĲ":1244,"ĠìĽ":1245,"ê°ģ":1246,"Ġcont":1247,"Ġì§Ģë§Į":1248,"ary":1249,"ep":1250,"ire":1251,"Ġdo":1252,"áĦ":1253,"ìĭł":1254,"íĻĶ":1255,"ind":1256,"ìĹħ":1257,"elf":1258,"act":1259,"ĠëĦ¤":1260,"ance":1261,"Ġx":1262,"Ġ#":1263,"ĠìĦ±":1264,"ĠëĲľ":1265,"Ġqu":1266,"Ġper":1267,"ens":1268,"Ġtim":1269,"ik":1270,"ë¶Ħ":1271,"ents":1272,"Ġout":1273,"Ġhis":1274,"Ġê¹Į":1275,"Ġwill":1276,"Ġìķĺ":1277,"Ġìľł":1278,"ear":1279,"ë³´":1280,"Ġìļ°":1281,"íĸī":1282,"Ġgr":1283,"ber":1284,"Ġpre":1285,"ìĭĿ":1286,"ĠV":1287,"ĠìĺĪ":1288,"ast":1289,"Ġgo":1290,"ress":1291,"Ġup":1292,"ust":1293,"duc":1294,"ction":1295,"Ġë¬´":1296,"ĠëĬ":1297,"ub":1298,"Ġë°©":1299,"Ġone":1300,"ia":1301,"ĠìĦł":1302,"ace":1303,"so":1304,"pe":1305,"Ġæ":1306,"ì±":1307,"ile":1308,"Ġê²ł":1309,"Ġê´Ģ":1310,"vel":1311,"ose":1312,"Ġëı":1313,"Ġyour":1314,"ice":1315,"Ġ**":1316,"ĠìĨ":1317,"©ëĭĪëĭ¤":1318,"ory":1319,"The":1320,"Ġno":1321,"ĠëĨ":1322,"Ġë¯¸":1323,"ëŀĮ":1324,"ìĹ¬":1325,"ìĤ°":1326,"Ġstr":1327,"ĠìļĶ":1328,"Ġso":1329,"Ġev":1330,"ëĤ´":1331,"ìĭ¤":1332,"iti":1333,"ail":1334,"ãĤ":1335,"ìķĪ":1336,"ĠìĹ°":1337,"Ġãģ":1338,"ëŀĳ":1339,"form":1340,"Ġê·":1341,"ĠìŀħëĭĪëĭ¤":1342,"Ġimp":1343,"Ġsc":1344,"Ġë¹":1345,"Ġê¹Įì§Ģ":1346,"Ġëĵľ":1347,"ì»":1348,"Ġê±´":1349,"ëŁ°":1350,"Ġtheir":1351,"Ġì°¨":1352,"Ġìŀĺ":1353,"Ġë§Ľ":1354,"Ġthey":1355,"ëłĪ":1356,"ical":1357,"Ġë©°":1358,"ite":1359,"ĠìķĮ":1360,"Ġinter":1361,"Ġmore":1362,"ìĶ":1363,"Ġsome":1364,"ĠâĢĿ":1365,"ang":1366,"Ġíķľëĭ¤":1367,"ĠëıĻ":1368,"ë¯¼":1369,"Ġcons":1370,"ëĵ¤":1371,"Ġìĭ¤":1372,"ll":1373,"Ġë°Ľ":1374,"Ġ|":1375,"Ġìŀ¥":1376,"Ġhad":1377,"ish":1378,"ê»":1379,"Ġman":1380,"ct":1381,"ata":1382,"ys":1383,"ìĥĿ":1384,"ĠëĦĪ":1385,"Ġbo":1386,"ê±°":1387,"Ġê¹":1388,"urn":1389,"ord":1390,"íĴ":1391,"ors":1392,"ĠëħĦ":1393,"ake":1394,"Ġtime":1395,"ĠY":1396,"own":1397,"ëł¥":1398,"tw":1399,"ì²´":1400,"ĠíĬ":1401,"xt":1402,"Ġê³Ħ":1403,"Ġmod":1404,"very":1405,"Ġ=\"":1406,"ely":1407,"ond":1408,"Ġalso":1409,"Ġthere":1410,"ìĭ¬":1411,"Ġag":1412,"ê³Ħ":1413,"Ġro":1414,"ìłĢ":1415,"íļĮ":1416,"Ġif":1417,"ĠìĥĿê°ģ":1418,"Ġíİ":1419,"ìľł":1420,"Ġlo":1421,"Ġind":1422,"Ġì´":1423,"ult":1424,"ks":1425,"cess":1426,"Ġpr":1427,"erv":1428,"Ġë°ľ":1429,"ëĭ¨":1430,"Ġê°Ĳ":1431,"Ġ<":1432,"ìļ¸":1433,"íİ":1434,"ë¥¸":1435,"tions":1436,"ìĦł":1437,"Ġob":1438,"Ġget":1439,"ren":1440,"Ġbeen":1441,"ëłĩ":1442,"ons":1443,"ãĥ":1444,"ree":1445,"Ġëĭ¤ê³ł":1446,"Ġrec":1447,"Ġë´":1448,"ef":1449,"Ġbet":1450,"Ġë¬¸":1451,"ĠíĽĦ":1452,"enc":1453,"Ġass":1454,"aus":1455,"Ġë©´ìĦľ":1456,"Ġë²Ī":1457,"ates":1458,"ĺĲ":1459,"ìµ":1460,"íģ¬":1461,"Ġì£":1462,"Ġco":1463,"Ġother":1464,"ë£¨":1465,"ĠìĤ¬ëŀĮ":1466,"ĠëĪ":1467,"Ġover":1468,"ì¦Ŀ":1469,"Ġíķ¨":1470,"ìµľ":1471,"ë£Į":1472,"ater":1473,"íı":1474,"low":1475,"Ġdes":1476,"gr":1477,"ĠìĿĮ":1478,"Ġsa":1479,"Ġsy":1480,"Ġíķ©ëĭĪëĭ¤":1481,"art":1482,"ĠíĨµ":1483,"Ġë§¤":1484,"Ġìĺģ":1485,"Ġwhen":1486,"ĠíĻĶ":1487,"ĠâĢľ":1488,"ike":1489,"ëĭ¹":1490,"Ġany":1491,"Ġam":1492,"lic":1493,"Ġfe":1494,"ìĦ¸":1495,"Ġcol":1496,"Ġwho":1497,"Ġç":1498,"Ġval":1499,"Ġmy":1500,"ple":1501,"Ġfun":1502,"Ġtw":1503,"ì½Ķ":1504,"ĠëĿ¼ê³ł":1505,"Ġìħ":1506,"Ġty":1507,"Ġher":1508,"ìĸĳ":1509,"íĴĪ":1510,"Ġsub":1511,"Ġkn":1512,"Ġabout":1513,"Ġph":1514,"ì¼":1515,"Ġì²ĺ":1516,"Ġop":1517,"ĠìĪ":1518,"Ġdif":1519,"Ġìĸ´ìĦľ":1520,"oin":1521,"ëªħ":1522,"Ġì§ĳ":1523,"ph":1524,"enti":1525,"ëĤľ":1526,"Ġwould":1527,"Ġthan":1528,"ë§Ĳ":1529,"Ġ&":1530,"Ġëĭ¹":1531,"ê¶":1532,"ĠIt":1533,"turn":1534,"Ġmo":1535,"Ġte":1536,"ĠCh":1537,"ĳľ":1538,"Ġnew":1539,"Ġits":1540,"ĠëĤ¨":1541,"ĠêµŃ":1542,"Ġì¹ĺ":1543,"Ġcomm":1544,"ĠìĹĲê²Į":1545,"ĠëĳĲ":1546,"Ġíķ´ìĦľ":1547,"ê³¼":1548,"Ġexp":1549,"Ġrel":1550,"ied":1551,"Ġem":1552,"ê²½":1553,"Ġëĭĺ":1554,"Ġsec":1555,"Ġë¬¼":1556,"ps":1557,"Ġpos":1558,"Ġìĭ¶":1559,"íĥĢ":1560,"ra":1561,"ĠëĦĪë¬´":1562,"íħ":1563,"Ġë°°":1564,"Ġìĺ¬":1565,"ìŀĳ":1566,"ings":1567,"ë¡Ŀ":1568,"we":1569,"irst":1570,"ays":1571,"Ġëĭ¨":1572,"ĠAn":1573,"ĠSt":1574,"fter":1575,"Ġgen":1576,"ĠìĽĶ":1577,"Ġëĭ¬":1578,"ĠìķĦëĭĪ":1579,"Ġë¶Ī":1580,"ĠëĶ°":1581,"Ġëª»":1582,"Ġíı¬":1583,"Ġadd":1584,"ĠëĬĲ":1585,"Ġì¶Ķ":1586,"Ġë°ĺ":1587,"Ġê°ķ":1588,"Ġì±":1589,"Ġìĭľê°Ħ":1590,"Ġëģ":1591,"Ġì»":1592,"ëĬĺ":1593,"vers":1594,"ìľĦ":1595,"lo":1596,"ìŀ¬":1597,"Ġset":1598,"ê»ĺ":1599,"ì°¨":1600,"Ġìµľ":1601,"Ġdata":1602,"ĠëĦ¤ìļĶ":1603,"Ġend":1604,"ms":1605,"ĠíĶ¼":1606,"Ġour":1607,"íĹ":1608,"Ġrep":1609,"Ġwork":1610,"Ġdef":1611,"reat":1612,"Ġinto":1613,"áĦı":1614,"Ġìŀ¬":1615,"ual":1616,"ê³µ":1617,"ĠëĺĲ":1618,"ĠìĤ´":1619,"ëĬ¥":1620,"Ġbec":1621,"tive":1622,"Ġyear":1623,"ific":1624,"Ġtrans":1625,"ari":1626,"ĠêµĲ":1627,"Ġìķ¼":1628,"ë°©":1629,"íĤ":1630,"lud":1631,"ĠíļĮ":1632,"pt":1633,"Ġëħ¸":1634,"ĠÃ":1635,"Ġstud":1636,"Ġëªħ":1637,"Ĩł":1638,"ild":1639,"ê²©":1640,"ìĽĮ":1641,"--------":1642,"Ġhigh":1643,"ìĹŃ":1644,"ìĺģ":1645,"ë¦Ħ":1646,"ìłĲ":1647,"Ġonly":1648,"ry":1649,"{\\":1650,"ark":1651,"Ġê²°":1652,"Ġmay":1653,"ë¦°":1654,"Ġtwo":1655,"ĠThis":1656,"Ġreg":1657,"ìĹ°":1658,"ĠëįĶëĿ¼":1659,"ĠWe":1660,"Ġform":1661,"Ġìŀĳ":1662,"ne":1663,"Ġlike":1664,"Ġpe":1665,"ì¸":1666,"ìĨį":1667,"ĠëķĮë¬¸":1668,"In":1669,"row":1670,"Ġëĭ¤ëĬĶ":1671,"Ġä":1672,"íķĻ":1673,"ĠWh":1674,"tain":1675,"Ġeff":1676,"Ġdec":1677,"Ġself":1678,"ëª¨":1679,"ased":1680,"ting":1681,"Ġê°Ħ":1682,"Ġ\",":1683,"ular":1684,"Ġunder":1685,"ĠìĺĢ":1686,"ative":1687,"Ġè":1688,"ëĶĶ":1689,"Ġfr":1690,"Ġfirst":1691,"iss":1692,"ause":1693,"ĠìłĲ":1694,"Ġspec":1695,"ëĵł":1696,"Ġdiffer":1697,"ì§ģ":1698,"les":1699,"ëłĩê²Į":1700,"stem":1701,"ink":1702,"ĠíĺĦ":1703,"Ġthem":1704,"Ġinv":1705,"Ġoff":1706,"Ġprov":1707,"íĭ":1708,"ick":1709,"ĠëĤł":1710,"Ġacc":1711,"ade":1712,"Ġsuch":1713,"anc":1714,"Ġwhat":1715,"ĠíĻķ":1716,"ĠíĮĮ":1717,"ft":1718,"Ġë§İìĿ´":1719,"arg":1720,"Ġê±¸":1721,"Ġthese":1722,"Ġbl":1723,"iew":1724,"ìĵ":1725,"ê·¼":1726,"íĨµ":1727,"ë°ľ":1728,"ating":1729,"eld":1730,"ĠíķĻ":1731,"Ġì¹´":1732,"Ġpres":1733,"Ġë¶ĢíĦ°":1734,"Ġuse":1735,"Ġëį°":1736,"Ġid":1737,"Ġë³´ëĭ¤":1738,"Ġ',":1739,"Ġìļ°ë¦¬":1740,"ĠìĶ":1741,"Ġdet":1742,"Ġresp":1743,"ìŀħ":1744,"Ġhow":1745,"Ġì£ł":1746,"ĠíĥĢ":1747,"Ġfunction":1748,"Ġnum":1749,"rough":1750,"ëĥ":1751,"ten":1752,"ê¼":1753,"Ġ@":1754,"Ġshe":1755,"ë§¤":1756,"##":1757,"ĠíĿ":1758,"ëĸ":1759,"ient":1760,"Ġtype":1761,"Ġrem":1762,"Ġê³³":1763,"ween":1764,"ĠHe":1765,"ë¦¬ê³ł":1766,"ian":1767,"Ġclass":1768,"Ġins":1769,"íĶĦ":1770,"ility":1771,"old":1772,"ech":1773,"ì²Ń":1774,"ê±´":1775,"lec":1776,"Ġê¸¸":1777,"Ġsign":1778,"Ġwhere":1779,"ì¤ĳ":1780,"ĠìĦ¸ìļĶ":1781,"Ġz":1782,"tiv":1783,"red":1784,"Ġíģ":1785,"cri":1786,"Ġbetween":1787,"Ġneed":1788,"Ġinclud":1789,"fore":1790,"ìī":1791,"Ġíŀ":1792,"Ġë¦¬":1793,"ì²ľ":1794,"âĢ":1795,"ĠìĦ¤":1796,"Ġpol":1797,"ug":1798,"ĠíķĺëĤĺ":1799,"ode":1800,"Ġafter":1801,"ange":1802,"ë°ĺ":1803,"Ġë¸":1804,"aw":1805,"olog":1806,"Ġrequ":1807,"ution":1808,"ise":1809,"ê¶Į":1810,"ì§Ī":1811,"Ġsupp":1812,"ë²Ī":1813,"Ġused":1814,"Ġsim":1815,"ĠâĢĵ":1816,"ax":1817,"íĺ¸":1818,"erm":1819,"Ī¬":1820,"ĠìĤ¬ìļ©":1821,"ì¶ľ":1822,"ê°ľ":1823,"ĠìķĦìĿ´":1824,"Ŀ½":1825,"Ġë²Ħ":1826,"ĠíĹ":1827,"ĠíķĦ":1828,"ĠëĿ¼ëĬĶ":1829,"Ġìĵ":1830,"Ġthen":1831,"Ġsaid":1832,"ues":1833,"====":1834,"ëŁ¼":1835,"Ġ}}":1836,"Ġì°¸":1837,"ë¸":1838,"Ġì½Ķ":1839,"ìŀĪ":1840,"íĶ¼":1841,"ments":1842,"íĹĺ":1843,"Ġcould":1844,"Ġpat":1845,"ì§ĳ":1846,"tit":1847,"ss":1848,"ix":1849,"íĿ":1850,"ning":1851,"Ġfol":1852,"Ġsystem":1853,"ject":1854,"Ġref":1855,"ë²ķ":1856,"tt":1857,"ê°Ĳ":1858,"ìŀĦ":1859,"Ġbr":1860,"Ġsm":1861,"ìķ½":1862,"ions":1863,"ize":1864,"Ġright":1865,"Ġshow":1866,"Ġë§ŀ":1867,"ëŀĢ":1868,"ë¦¼":1869,"ĠUn":1870,"ock":1871,"Ġcor":1872,"ĠìĹ´":1873,"Ġ~~":1874,"ont":1875,"Ġìľ¼ë©´":1876,"ë©°":1877,"ble":1878,"Ġsee":1879,"Ġì¤Ģ":1880,"êµ°":1881,"Ġinf":1882,"Ġíģ¬":1883,"tom":1884,"ì¡±":1885,"ople":1886,"ĠìĭĿ":1887,"Ġíİ¸":1888,"Ġé":1889,"ures":1890,"thing":1891,"Ġëĸ":1892,"Ġìļ´":1893,"áħ":1894,"tern":1895,"Ġback":1896,"íĽĦ":1897,"Ġë³¸":1898,"ĠìłķëıĦ":1899,"Ġ_{":1900,"Ġmin":1901,"ĠìľĦíķ´":1902,"ì¦Ī":1903,"tem":1904,"ible":1905,"als":1906,"Ġìĸĳ":1907,"ew":1908,"Ġsur":1909,"íĳľ":1910,"ĠíĬ¹":1911,"ex":1912,"Ġmost":1913,"Ġì¹ľ":1914,"Ġíĸī":1915,"Ġhim":1916,"Ġ$\\":1917,"ven":1918,"Ġthrough":1919,"Ġint":1920,"ìĦĿ":1921,"Ġì´Ī":1922,"ever":1923,"Ġjust":1924,"ey":1925,"Th":1926,"ious":1927,"ìł¸":1928,"uring":1929,"Ġì¶ľ":1930,"íĥľ":1931,"Ġmodel":1932,"io":1933,"íĮĮ":1934,"Ġusing":1935,"ĠìĨĲ":1936,"Ġíħ":1937,"ĠìĤ¬ì§Ħ":1938,"Ġgener":1939,"ower":1940,"Ġknow":1941,"Ġproduc":1942,"Ġmath":1943,"Ġëĵ¤ìĸ´":1944,"ëĤł":1945,"ved":1946,"wn":1947,"Ġì§ģ":1948,"Ġì¤Ħ":1949,"Ġwell":1950,"ĠìĤ°":1951,"ë³µ":1952,"ìĪł":1953,"ĠíĶĦ":1954,"ë³¸":1955,"ĠìĥĪ":1956,"uch":1957,"Ġ`":1958,"ield":1959,"Ġdisc":1960,"Ġëĭ¤ê°Ģ":1961,"Ġshould":1962,"ĠìĹŃ":1963,"arch":1964,"ìłģ":1965,"Ġname":1966,"oy":1967,"Ġfollow":1968,"Ġê´":1969,"its":1970,"ities":1971,"áĦĴ":1972,"Ġëĥ":1973,"ict":1974,"ull":1975,"Ġíĺ¸":1976,"ìĬµ":1977,"ìį":1978,"Ġê¹Ģ":1979,"test":1980,"ì§ľ":1981,"Ġter":1982,"ëŁī":1983,"Ġloc":1984,"ê°ķ":1985,"Ġdid":1986,"ë°Ķ":1987,"ited":1988,"Ġê¸Ī":1989,"Ġìłķë§Ĳ":1990,"of":1991,"Ġíķ´ìķ¼":1992,"ful":1993,"Ġcoun":1994,"Ġê°ĢëĬ¥":1995,"Ġì°¾":1996,"rit":1997,"Ġìĸ´ëĸ":1998,"ement":1999,"Ġcell":2000,"Ġeach":2001,"Ġpeople":2002,"Ġìĭ¬":2003,"ë²Ħ":2004,"ĠëŃ":2005,"Ġfl":2006,"Ġimport":2007,"ĠX":2008,"Ġgrou":2009,"ĠëıĮ":2010,"Ġ^^":2011,"Ġë©Ķ":2012,"put":2013,"Ġcur":2014,"ĠëĲł":2015,"ational":2016,"Ġíıī":2017,"ateg":2018,"mer":2019,"ìª":2020,"ob":2021,"ê¸ī":2022,"thod":2023,"ë¡ł":2024,"Ġëł¤":2025,"Ġau":2026,"velop":2027,"ĠíĴ":2028,"ìłĪ":2029,"ìĻĢ":2030,"ĠÎ":2031,"Ġbu":2032,"atch":2033,"Ġê°Ģì§Ģ":2034,"Ġvari":2035,"ĠëĲľëĭ¤":2036,"ĠìĿ´ëĤĺ":2037,"Ġbecause":2038,"ĠQ":2039,"ĠìķĦìļĶ":2040,"íĭ°":2041,"Ġê²½ìļ°":2042,"ì·":2043,"ption":2044,"ìģ":2045,"Ġconf":2046,"ĠëĮĢíķľ":2047,"Ġìķŀ":2048,"au":2049,"Ġcour":2050,"ì¤Ģ":2051,"ĠëĪĪ":2052,"Ġdep":2053,"ized":2054,"ì¹´":2055,"ature":2056,"ĠìĹĦ":2057,"Ġì²´":2058,"Ġì¢ħ":2059,"Ġexper":2060,"ection":2061,"íħĮ":2062,"ider":2063,"inal":2064,"Ġfil":2065,"Ġfact":2066,"ward":2067,"ĠìĻ¸":2068,"Ġë§Įëĵ¤":2069,"Ġê¼":2070,"cc":2071,"ects":2072,"Ġconc":2073,"áĦıáĦı":2074,"ëł¨":2075,"ĠÂ·":2076,"ily":2077,"Ġìļ©":2078,"self":2079,"Ġì²Ń":2080,"ected":2081,"Ġvalue":2082,"Ġê·¼":2083,"ork":2084,"ĠìķĦìĦľ":2085,"íı¬":2086,"Ġmake":2087,"ëĦĪ":2088,"Ġcall":2089,"ma":2090,"Ġcar":2091,"Ġìķ½":2092,"Ġì¦Ŀ":2093,"Ġê·¸ëŀĺ":2094,"Ġë§ĽìŀĪ":2095,"ĠRe":2096,"Ġprocess":2097,"ving":2098,"Ġìĸ¼":2099,"trib":2100,"tical":2101,"ëĭ´":2102,"ì·¨":2103,"Ġìĭľìŀĳ":2104,"ters":2105,"Ġhel":2106,"Ġê·¸ëŁ°":2107,"Ġëĵ¯":2108,"Ġë³¼":2109,"Ġíķ¨ê»ĺ":2110,"Ġpoin":2111,"Ġìĵ°":2112,"íĤ¤":2113,"Ġagain":2114,"Ġanal":2115,"Ġser":2116,"ĠíĪ¬":2117,"Ġfind":2118,"Ġmed":2119,"ages":2120,"ĠTr":2121,"Ġpers":2122,"up":2123,"íİĺ":2124,"Ġincre":2125,"Ġëĭ¤ë¥¸":2126,"Ġlook":2127,"Ġíŀĺ":2128,"ê²°":2129,"íģ":2130,"Ġì¢Ģ":2131,"ì¼Ģ":2132,"Ġeven":2133,"íĨł":2134,"êµ¬ìļĶ":2135,"Ġstat":2136,"Ġexam":2137,"Ġíĺķ":2138,"ĠìĨį":2139,"ĠìĿ¸ëį°":2140,"Ġ\":":2141,"ê²¨":2142,"Ġele":2143,"Ġserv":2144,"Ġlong":2145,"Ġway":2146,"Ġnumber":2147,"tal":2148,"Ġpartic":2149,"Ġsol":2150,"Ġtest":2151,"Ġdi":2152,"ood":2153,"Ġappro":2154,"ìª½":2155,"ê½":2156,"led":2157,"ë¦½":2158,"Ġboth":2159,"ĠëĴ":2160,"Ġdifferent":2161,"Ġevery":2162,"ants":2163,"Ġplay":2164,"Ġëª©":2165,"ife":2166,"Ġmon":2167,"ton":2168,"Ġcontro":2169,"Ġ\\]":2170,"ëħĦ":2171,"Ġsame":2172,"formation":2173,"ĠìĻĦ":2174,"ì¢ħ":2175,"ĠCom":2176,"Ġdoes":2177,"Ġì°į":2178,"ì³":2179,"ĠëĦĺ":2180,"ove":2181,"ric":2182,"Wh":2183,"ined":2184,"Ġvery":2185,"Ġes":2186,"ĠëĪĦ":2187,"til":2188,"Ġleft":2189,"Ġnow":2190,"Ġdevelop":2191,"Ġbefore":2192,"íĥĿ":2193,"ìĽĢ":2194,"Ġdire":2195,"ults":2196,"ĠâĢĶ":2197,"Ġyears":2198,"uct":2199,"Ġmem":2200,"Ġmany":2201,"Ġdown":2202,"ines":2203,"ëł¸":2204,"Ġsto":2205,"Ġcre":2206,"ĠìŀĦ":2207,"ĠAl":2208,"Ġìĸ¸":2209,"Ġê·¸ë¦¬ê³ł":2210,"ìĦ¤":2211,"Ġpart":2212,"aph":2213,"ĠPro":2214,"ĠìĪľ":2215,"Ġìī":2216,"Ġlevel":2217,"bs":2218,"eng":2219,"Ġë§ĪìĿĮ":2220,"Ġì§Ī":2221,"íİ¸":2222,"ale":2223,"Ġfound":2224,"Ġread":2225,"Ġinst":2226,"Ġì»¤":2227,"Ġ{\\":2228,"ìĥī":2229,"ëĭ¬":2230,"Ġhand":2231,"Ġer":2232,"ĠFor":2233,"Ġcomple":2234,"Ġ\\[":2235,"ì¡´":2236,"ON":2237,"Ġmethod":2238,"Ġcase":2239,"</":2240,"ients":2241,"Ġì²ľ":2242,"Ġve":2243,"Ġorder":2244,"ince":2245,"ash":2246,"Ġìĺ¤ëĬĺ":2247,"ê²ĥ":2248,"ool":2249,"Ġë³Ģ":2250,"ublic":2251,"íĺĦ":2252,"ute":2253,"ëĥ¥":2254,"ī´":2255,"ì¡Į":2256,"Ġëĭ¤ìĭľ":2257,"ases":2258,"ator":2259,"Ġchar":2260,"Ġbel":2261,"Ġ--":2262,"ìĺ¨":2263,"Ġë°Ķë¡ľ":2264,"ĠíĻľ":2265,"ëĤ¨":2266,"Ġ}$":2267,"ared":2268,"Ġequ":2269,"ĠìĹħ":2270,"pr":2271,"Ġê¸Ģ":2272,"ĠëĶĶ":2273,"ìº":2274,"ĠëįĶëĿ¼êµ¬ìļĶ":2275,"Ġthose":2276,"Ġ!!":2277,"Ġhtt":2278,"ĠZ":2279,"Ġê²Ģ":2280,"\"\"":2281,"Ġ\")":2282,"gan":2283,"ĠÐ":2284,"ĠìĹĶ":2285,"Ġed":2286,"air":2287,"ĠëĬĲëĤ":2288,"Ġìĺ¨":2289,"áħ²":2290,"ìľ¡":2291,"ĠíĤ":2292,"ĠëĬĶëį°ìļĶ":2293,"ner":2294,"Ġbeing":2295,"oci":2296,"me":2297,"con":2298,"Ġë°ķ":2299,"ins":2300,"aking":2301,"ank":2302,"Ġì¸":2303,"ness":2304,"ee":2305,"lish":2306,"Ġìķł":2307,"ĠAs":2308,"ices":2309,"Ġel":2310,"ìľ¼":2311,"Ġmade":2312,"ĠëģĿ":2313,"ER":2314,"ëĿ½":2315,"íķ©":2316,"Ġëŀĳ":2317,"íĺķ":2318,"ì¶Ķ":2319,"ê¾":2320,"Ġline":2321,"hip":2322,"Ġë³´ìĿ´":2323,"cl":2324,"ëª©":2325,"íĿ¬":2326,"ĠíķĦìļĶ":2327,"Ġë¿":2328,"ĠìĿ´ìĥģ":2329,"Ġìħ¨":2330,"ason":2331,"ier":2332,"Ġ')":2333,"Ġpresent":2334,"Ġgu":2335,"ave":2336,"try":2337,"tle":2338,"Ġet":2339,"Ġown":2340,"ĠAr":2341,"ĠãĤ":2342,"Ġgood":2343,"Ġq":2344,"ng":2345,"ount":2346,"Ġhelp":2347,"ĠëıĦë¡Ŀ":2348,"Ġav":2349,"Ġê¶Į":2350,"ì²ĺ":2351,"Ġì²ĺëŁ¼":2352,"ĠìĿ´ëłĩê²Į":2353,"bo":2354,"Ġhere":2355,"ë§Ŀ":2356,"Ġbased":2357,"ĠYou":2358,"íĻ©":2359,"Ġcap":2360,"Ġê°Ī":2361,"Ġstate":2362,"Ġdiv":2363,"ĠíĨµíķ´":2364,"Ġperform":2365,"ality":2366,"ëŀľ":2367,"íĸ¥":2368,"Ġoper":2369,"till":2370,"Ġíĭ":2371,"Ġë¬¸ìłľ":2372,"ìĹĲ":2373,"Ġëĭ´":2374,"other":2375,"ĠâĢĺ":2376,"rent":2377,"Ġmain":2378,"Ġì§Ħíĸī":2379,"ually":2380,"ĠFig":2381,"Ġmet":2382,"ĠìķĦëĭ":2383,"Ġcent":2384,"ets":2385,"ĠIf":2386,"ĠAnd":2387,"ĠëĨĴ":2388,"ĠëĲĲ":2389,"Ġdon":2390,"Ġì§Ħì§ľ":2391,"Ġgiv":2392,"Ġstudy":2393,"Ġwhile":2394,"Ġsecond":2395,"ĠíĻĺ":2396,"ror":2397,"ì¹¨":2398,"íĮħ":2399,"ĠëłĪ":2400,"íĻĺ":2401,"ĠíĮĲ":2402,"ody":2403,"ĠíĬ¸":2404,"def":2405,"Ġnon":2406,"any":2407,"Ġdel":2408,"ĠëĮĢíķ´":2409,"Ġíļ":2410,"Ġrun":2411,"ars":2412,"ences":2413,"ĠëĶ°ëĿ¼":2414,"Ġthree":2415,"ĠëĬĶì§Ģ":2416,"ĠHow":2417,"Ġduring":2418,"ĠìĿ´ëŁ°":2419,"ìĻĶ":2420,"ization":2421,"ism":2422,"ë¦´":2423,"Ġì§ĢëĤľ":2424,"Ġë°ı":2425,"ision":2426,"Ġgroup":2427,"Ġmuch":2428,"pos":2429,"Ġì¹ľêµ¬":2430,"ë¥ĺ":2431,"Ġcr":2432,"ather":2433,"ìĻ¸":2434,"read":2435,"echn":2436,"Ġë³Ħ":2437,"Ġì¦":2438,"Ġposs":2439,"__":2440,"ann":2441,"line":2442,"over":2443,"Ġext":2444,"ëħĢ":2445,"ired":2446,"íĮĲ":2447,"ĠëĴ¤":2448,"Ŀµ":2449,"Ġreturn":2450,"Ġsmall":2451,"Ġë¹ł":2452,"Ġì§Ģê¸Ī":2453,"Ġinformation":2454,"erg":2455,"ency":2456,"ulation":2457,"ability":2458,"ties":2459,"view":2460,"Ġ\">":2461,"ëŁ½":2462,"alth":2463,"Ġìº":2464,"eck":2465,"ves":2466,"way":2467,"Ġmark":2468,"Ġë²ķ":2469,"Ġì±Ħ":2470,"Ġday":2471,"Ġê°Ģìŀ¥":2472,"dition":2473,"Ġë´¤":2474,"arly":2475,"Ġproper":2476,"Ġê½":2477,"Ġë¸Ķ":2478,"ìĿµ":2479,"yl":2480,"ìħĺ":2481,"Ġë³µ":2482,"ĠíĨł":2483,"**":2484,"Ġê°ĻìĿ´":2485,"Ġconsider":2486,"Ġdr":2487,"Ġlist":2488,"br":2489,"ese":2490,"Ġíģ°":2491,"ë§ī":2492,"Ġëĳ":2493,"ê¾¸":2494,"fic":2495,"Ġíĳľ":2496,"Ġprovid":2497,"ì¿":2498,"Ġpath":2499,"ìį¨":2500,"atic":2501,"Ġíķ´ìļĶ":2502,"Ġtem":2503,"Ġsl":2504,"por":2505,"Ġthink":2506,"ĠBut":2507,"Ġperson":2508,"Ġê·¸ëŁ¬":2509,"Ġë¨¸":2510,"ĠThere":2511,"Ġìŀ¡":2512,"Ġactiv":2513,"Ġarg":2514,"Ġì±ħ":2515,"ĠìĻĶ":2516,"ĠíķľêµŃ":2517,"ë¸Į":2518,"ists":2519,"Ġdev":2520,"Ġrece":2521,"Ġwant":2522,"Ġprev":2523,"ience":2524,"Ġwithout":2525,"Ġproble":2526,"ĠSh":2527,"iqu":2528,"ĠëĬĲëĤĮ":2529,"uss":2530,"ern":2531,"ĠíħĮ":2532,"Ġresults":2533,"Ġê°ģ":2534,"ential":2535,"ĠëŁ¬":2536,"ëĪ":2537,"ì³Ĳ":2538,"Ġlit":2539,"ëł¹":2540,"ĠíĶĮ":2541,"Ġìľ¼ëĭĪ":2542,"Ġcle":2543,"Ġlab":2544,"Ġë´Ĳ":2545,"Ġchild":2546,"ross":2547,"ta":2548,"Ġìĸµ":2549,"amp":2550,"Ġresult":2551,"Ġent":2552,"ĠìłľíĴĪ":2553,"ger":2554,"Ġê·Ģ":2555,"gram":2556,"ĠìħĶ":2557,"ĠëĭĪê¹Į":2558,"return":2559,"ëįĶ":2560,"ov":2561,"Ġpur":2562,"ĠìĤ¼":2563,"Ġ|>":2564,"take":2565,"ĠìĤ¬ìĿ´":2566,"Ġthough":2567,"ĠëĨĢ":2568,"Ŀĳ":2569,"int":2570,"day":2571,"ĠìŀĲìĭł":2572,"irc":2573,"ĠëĨĵ":2574,"ë°ķ":2575,"Ġdescri":2576,"ument":2577,"Ġë¶Ģë¶Ħ":2578,"Ġact":2579,"Ġlead":2580,"Ã©":2581,"Ġhy":2582,"ĠëĤľ":2583,"Ġopen":2584,"Ġexpl":2585,"Ġcontrol":2586,"land":2587,"ë°°":2588,"Ġfam":2589,"yn":2590,"Ġtext":2591,"Ġë§ī":2592,"Ġì·¨":2593,"Ġparam":2594,"Ġmeas":2595,"ouse":2596,"ì§Ģë§Į":2597,"par":2598,"Ġë°±":2599,"ategory":2600,"Ġë²ł":2601,"ìĿĳ":2602,"Ġdoc":2603,"Ġfin":2604,"ĠëĤĺìĺ¤":2605,"Ġ__":2606,"Ġêµ":2607,"Ġê±°ëĤĺ":2608,"gg":2609,"ĠìĶ¨":2610,"port":2611,"íļ":2612,"ë³Ģ":2613,"ah":2614,"ural":2615,"Ġtop":2616,"be":2617,"Ġëª¨ëĳĲ":2618,"Ġì¡°ê¸Ī":2619,"Ġë¯¼":2620,"AT":2621,"Ġhead":2622,"Ġë³ĳ":2623,"Ġì¶©":2624,"ìĨ¡":2625,"ĠìĿ´ë²Ī":2626,"Ġlife":2627,"Ġì¤Ģë¹Ħ":2628,"Ġiss":2629,"Ġsignific":2630,"az":2631,"ìĬ¹":2632,"ression":2633,"ĠíĤ¤":2634,"ĠëĦ£":2635,"ane":2636,"Ġ}\\":2637,"Ġpri":2638,"Ġmust":2639,"ĠNew":2640,"Ġmul":2641,"ĠLet":2642,"pec":2643,"els":2644,"Ġê´Ģë¦¬":2645,"Ġfig":2646,"ìłĳ":2647,"Ġobs":2648,"Ġdesign":2649,"ë¨¸":2650,"Ġlim":2651,"min":2652,"Ġê»ĺ":2653,"ule":2654,"ds":2655,"Ġdem":2656,"Ġsch":2657,"Ð¾":2658,"Ġsk":2659,"Ġpass":2660,"Ġtake":2661,"íĸĪ":2662,"ames":2663,"ĠìĹ¬ê¸°":2664,"acter":2665,"ëĵ±":2666,"aining":2667,"ëĵĿ":2668,"Ġstill":2669,"Ġlast":2670,"ĠëĭµëĭĪëĭ¤":2671,"techn":2672,"Ġstand":2673,"Ġëª¨ìĬµ":2674,"ê¿":2675,"íģ¼":2676,"Ġfield":2677,"ĠìłĪ":2678,"ĠìĹĲìļĶ":2679,"ĠëŃĲ":2680,"ology":2681,"Ġê·¸ëĥ¥":2682,"Ġlog":2683,"action":2684,"Ġanalys":2685,"Ġmat":2686,"ime":2687,"Ġtechn":2688,"ym":2689,"ĠìĹ¬ëŁ¬":2690,"iness":2691,"ium":2692,"Ġë°Ŀ":2693,"ĠNo":2694,"Ġíĸ¥":2695,"Ġë¸Į":2696,"Ġê¸´":2697,"Ġcurrent":2698,"ource":2699,"Ġì½":2700,"IN":2701,"app":2702,"ì±ħ":2703,"Ġíļ¨":2704,"ĠìĹĨìĿ´":2705,"Ġëĭ¤ë©´":2706,"lect":2707,"ì¦ĺ":2708,"Ġmen":2709,"ĠìĤ¬ìĭ¤":2710,"Ġworld":2711,"Ġê°Ķ":2712,"ĠíķŃ":2713,"Ġcommun":2714,"tes":2715,"ì°©":2716,"Ġíľ":2717,"Ġì²ĺìĿĮ":2718,"ĠAd":2719,"Ġpower":2720,"Ġallow":2721,"Ġ</":2722,"Ġwithin":2723,"tract":2724,"arge":2725,"Ġcal":2726,"istic":2727,"Ġreal":2728,"Ġìŀł":2729,"ert":2730,"Ġques":2731,"mit":2732,"ë³Ħ":2733,"Ġatt":2734,"Ġadv":2735,"íķŃ":2736,"ced":2737,"Ġaff":2738,"ëħ¸":2739,"aj":2740,"Ġvis":2741,"Ġì¼Ģ":2742,"oh":2743,"oss":2744,"arm":2745,"Ġä¸":2746,"į¼":2747,"aren":2748,"Ġdist":2749,"eter":2750,"ìĽĶ":2751,"Ġfile":2752,"ital":2753,"ìĬ¤íĬ¸":2754,"ivers":2755,"bed":2756,"Ġê´ĳ":2757,"work":2758,"Ġpatients":2759,"Ġsize":2760,"Ġsum":2761,"ination":2762,"Ġcondition":2763,"ĠìĤ¬ëŀĳ":2764,"Ġkey":2765,"ior":2766,"Ġbus":2767,"arn":2768,"meric":2769,"Ġstart":2770,"Ġsignificant":2771,"for":2772,"urther":2773,"ES":2774,"Ġëĭ¤ìĿĮ":2775,"Ġ\"}":2776,"idence":2777,"ĠCl":2778,"Ġimportant":2779,"Ġbas":2780,"ëĦ¤":2781,"Ġexample":2782,"ots":2783,"Ġ^{":2784,"ĠìĿ´ìļ©":2785,"Ġëľ":2786,"ĠáĦıáĦı":2787,"ently":2788,"Ġgreat":2789,"Ġcontin":2790,"ĠEx":2791,"treat":2792,"Ġêµ°":2793,"ains":2794,"ense":2795,"ĠOn":2796,"Ġnet":2797,"Ġocc":2798,"âĢľ":2799,"Ġti":2800,"Ġdeterm":2801,"ëĮĢë¡ľ":2802,"ploy":2803,"ĠìĻľ":2804,"Ġê°Ģê²©":2805,"Ġprof":2806,"Ġcare":2807,"ying":2808,"ately":2809,"ĠëĬĶëĭ¤":2810,"oth":2811,"text":2812,"cept":2813,"Ġagainst":2814,"ĠThey":2815,"ĠCon":2816,"Ġëª¨ë¥´":2817,"Ġë°©ë²ķ":2818,"Ġpoint":2819,"Ġì´Ŀ":2820,"ĠÂŃ":2821,"ëıħ":2822,"Ġsupport":2823,"Ġfollowing":2824,"Ġsay":2825,"Ġbest":2826,"Ġê²½ê¸°":2827,"Ġpop":2828,"Ġëĵł":2829,"Ġapplic":2830,"bers":2831,"Ġaddition":2832,"ìĸ¸":2833,"Ġaround":2834,"akes":2835,"Ġëª¸":2836,"ĠáĦĴ":2837,"ë´":2838,"ëī´":2839,"íĻľ":2840,"Ġëĭ¤ìĸĳ":2841,"ĠAmeric":2842,"ì´Ī":2843,"ics":2844,"Ġëĵľë¦¬":2845,"ê·¸ëŀĺ":2846,"Ġincluding":2847,"Ġlaw":2848,"ek":2849,"ording":2850,"Ġmean":2851,"Ġrele":2852,"Ġauth":2853,"Ġchang":2854,"Ġdirect":2855,"Ġê³¨":2856,"Ġidenti":2857,"Ġhum":2858,"Ġspecific":2859,"Ġbre":2860,"gin":2861,"Ġsing":2862,"ĠíĮ¨":2863,"Ġíķ©":2864,"Ġcells":2865,"itive":2866,"Ġíĥľ":2867,"man":2868,"Ġcourt":2869,"íķł":2870,"Ġke":2871,"Ġlet":2872,"ĠëĲ©ëĭĪëĭ¤":2873,"Ġ':":2874,"wh":2875,"ĠìĥģíĻ©":2876,"Ġtreat":2877,"Ġì§ĢìĹŃ":2878,"ĠìĦľìļ¸":2879,"ë¹ł":2880,"Ġsam":2881,"Ġconn":2882,"Ġold":2883,"Ġstruct":2884,"ê¸¸":2885,"Ġìĭľìŀ¥":2886,"ì¼ľ":2887,"ĠìĤ¬ìĹħ":2888,"truc":2889,"orted":2890,"ote":2891,"ission":2892,"aim":2893,"ìĥĪ":2894,"Ġbeh":2895,"Ġest":2896,"Ð°":2897,"Ġhome":2898,"rop":2899,"Ġmulti":2900,"ĠPh":2901,"ĠíĶĦë¡ľ":2902,"----------------":2903,"Ġëª¨ëĵł":2904,"aterial":2905,"ured":2906,"Ġsit":2907,"Ġless":2908,"ê¸Ģ":2909,"Ġsever":2910,"Ġì°½":2911,"ë¸Ķ":2912,"med":2913,"ces":2914,"ived":2915,"son":2916,"įëĭĪëĭ¤":2917,"iver":2918,"Category":2919,"ĠìĿ´ìłľ":2920,"und":2921,"Ġsince":2922,"ead":2923,"Ġprogram":2924,"ìģĺ":2925,"Ġíģ´":2926,"ĠíĻķìĿ¸":2927,"ety":2928,"ray":2929,"Ġwater":2930,"ene":2931,"lement":2932,"ĠHowever":2933,"eral":2934,"Ġanother":2935,"ĠApp":2936,"ertain":2937,"Ġëı¼":2938,"ìĺ¤ëĬĺ":2939,"Ġlow":2940,"Ġwr":2941,"Ġla":2942,"Ġgrow":2943,"Ġview":2944,"ength":2945,"orn":2946,"ĠíĹĪ":2947,"oid":2948,"Ġê·¸ëŀĺìĦľ":2949,"Ġplace":2950,"tice":2951,"êº":2952,"ê°Ŀ":2953,"Ġrepres":2954,"ways":2955,"Ġfac":2956,"ìĹĪ":2957,"upp":2958,"Ġspe":2959,"ê²¬":2960,"Ðµ":2961,"ê°Ī":2962,"Ġì¤ĳìļĶ":2963,"ĠTo":2964,"Ġìłĳ":2965,"Ġwhe":2966,"Ġmight":2967,"Ġpublic":2968,"ĠìĿ´ìķ¼":2969,"íĶĮ":2970,"Ġì¦Ĳ":2971,"ĠIs":2972,"Ġmonth":2973,"Ġdri":2974,"Ġhttps":2975,"Ġgiven":2976,"ì°°":2977,"ically":2978,"AR":2979,"Ġê·ľ":2980,"ì¹ľ":2981,"ĠShe":2982,"Ġ$$":2983,"orts":2984,"ush":2985,"ective":2986,"ĠInd":2987,"ĠìĶ©":2988,"ĠìĬ¹":2989,"An":2990,"ained":2991,"Ġfree":2992,"ĠìķĦëĭĮ":2993,"íĺĢ":2994,"Ġtyp":2995,"Ġuser":2996,"ìĮ":2997,"========":2998,"Ġíĺĳ":2999,"the":3000,"Ġì¹´íİĺ":3001,"[@":3002,"Ġìľ¼ë©°":3003,"Ġìĥģíĥľ":3004,"NA":3005,"Ġë°ĸ":3006,"Ġnext":3007,"ìĤ´":3008,"ìĺ¬":3009,"Ġtoo":3010,"ê·¸ë¦¬ê³ł":3011,"ape":3012,"Ġë¯":3013,"Ġchange":3014,"Ġbuild":3015,"ëĬĲ":3016,"ĠWhat":3017,"ĠGr":3018,"RL":3019,"reen":3020,"Ġë¨¼":3021,"ë©Ķ":3022,"Ġfrac":3023,"Ġìĥī":3024,"less":3025,"Ġgl":3026,"ìĺĪ":3027,"ĠëıĪ":3028,"ident":3029,"ĠìķĦë¬´":3030,"Ġlocal":3031,"table":3032,"Ġê¸ī":3033,"Ġgoing":3034,"Ġëŀ":3035,"ably":3036,"íļį":3037,"Ġsubs":3038,"Ġanalysis":3039,"face":3040,"ivid":3041,"Ġfre":3042,"Ġver":3043,"ffic":3044,"Ġwrit":3045,"ê¶ģ":3046,"Ġfew":3047,"Ġorgan":3048,"osed":3049,"ìĸµ":3050,"Ġê´Ģëł¨":3051,"onse":3052,"ë¶Ī":3053,"ery":3054,"Ġì¹ĺë£Į":3055,"This":3056,"Ġeas":3057,"Ġtimes":3058,"Ġlarge":3059,"ìķħ":3060,"ĠPl":3061,"ĠSc":3062,"Ġê³ĦìĨį":3063,"lectr":3064,"Ġcode":3065,"Ġassoci":3066,"stand":3067,"ury":3068,"ĠëĥĲ":3069,"ëĭĺ":3070,"ĠìĿ´ìľł":3071,"ĠíĽ":3072,"Ġred":3073,"Ġëł¤ê³ł":3074,"Ġë¿Ĳ":3075,"ëħķ":3076,"ends":3077,"Ġhealth":3078,"Ġcorre":3079,"OR":3080,"Ġbig":3081,"Ġpot":3082,"ĠëıĻìķĪ":3083,"inc":3084,"ris":3085,"Ġëĵ¤ìĸ´ê°Ģ":3086,"ault":3087,"alse":3088,"iron":3089,"Ġìĸ´ëĸ¤":3090,"ĠìĿ´ìķ¼ê¸°":3091,"cul":3092,"Ġì¶Ķì²ľ":3093,"Ġcirc":3094,"ìļ±":3095,"ëģĶ":3096,"Ġëıħ":3097,"ĠìĿ´ëŀĳ":3098,"Ġfour":3099,"ìĶ¨":3100,"Ġíķĺë£¨":3101,"Ġê¼Ń":3102,"omen":3103,"vely":3104,"Ġavail":3105,"ìŁ":3106,"Ġobserv":3107,"ĠëĬĺ":3108,"Ġpost":3109,"search":3110,"Ġll":3111,"Ġvers":3112,"oto":3113,"ĠìĬ¤íĥĢ":3114,"ĠâĪ":3115,"istr":3116,"íķ¨":3117,"ĠìłĦë¬¸":3118,"Ġìĸ´ìķ¼":3119,"ights":3120,"Ġturn":3121,"Ġprob":3122,"Ġindic":3123,"Ġimpro":3124,"ĠìľĦíķľ":3125,"ems":3126,"ox":3127,"Ġendof":3128,"ê´ĳ":3129,"ìķł":3130,"Ġì§¸":3131,"lection":3132,"Ġ==":3133,"Ġposition":3134,"What":3135,"Ġëĳĺ":3136,"ĠLe":3137,"Ġlay":3138,"Ġstar":3139,"Ġcommon":3140,"Ġmaterial":3141,"ëłĪìĿ´":3142,"Ġleg":3143,"vern":3144,"Ġì¸µ":3145,"Ġparticular":3146,"ither":3147,"cal":3148,"Ġ']":3149,"ĠìĿ¸ì§Ģ":3150,"Ġvol":3151,"ĠëıĮìķĦ":3152,"Ġimage":3153,"Ġteam":3154,"ìĩ":3155,"íĺĶ":3156,"Ġì§ĢìĽĲ":3157,"Ġsuc":3158,"Ġrefer":3159,"Ġëª°":3160,"Ġresearch":3161,"ling":3162,"ĠëĮĢíĳľ":3163,"Ġê±´ê°ķ":3164,"uce":3165,"Ġsw":3166,"ustr":3167,"tig":3168,"Ġinterest":3169,"ìĹĨ":3170,"ples":3171,"Ġê¸°ìĹħ":3172,"Ġëªĩ":3173,"ĠìĹĦì²Ń":3174,"Ġë°¥":3175,"Ġabs":3176,"iod":3177,"ëĨ":3178,"Ġáħ²":3179,"Ġ%)":3180,"We":3181,"Ġcharacter":3182,"Ġvar":3183,"ĠìŀĲë¦¬":3184,"Ġë²Į":3185,"ë°¥":3186,"ë¶ģ":3187,"ëģ¼":3188,"ession":3189,"Ġãģ®":3190,"Ġtable":3191,"icro":3192,"Ġì¡´":3193,"ì°®":3194,"ĠDe":3195,"ë³ĳ":3196,"ump":3197,"ì°¬":3198,"Ġhapp":3199,"duced":3200,"Ġobtain":3201,"val":3202,"ified":3203,"Ġmax":3204,"ĠìķĦì£¼":3205,"ativ":3206,"Ġrecord":3207,"Ġ}_":3208,"Ġrad":3209,"êµ´":3210,"acy":3211,"Ġlight":3212,"},":3213,"ìļķ":3214,"ĠAll":3215,"ĠêµĲìľ¡":3216,"Ġput":3217,"Ġbetter":3218,"Ġknown":3219,"aps":3220,"ilar":3221,"ised":3222,"Ġê´Ģê³Ħ":3223,"Ġsugg":3224,"EN":3225,"ended":3226,"ĠUS":3227,"Let":3228,"Ġgovern":3229,"Ġproblem":3230,"Ġìłķë³´":3231,"ustom":3232,"amb":3233,"Ġreally":3234,"Ġë§Įíģ¼":3235,"ì¶ķ":3236,"Ġide":3237,"ask":3238,"ì°½":3239,"ãĢ":3240,"Ġask":3241,"ĠìĿĦê¹Į":3242,"``":3243,"uck":3244,"ìĽł":3245,"Ġbusiness":3246,"Ġpossible":3247,"Ġíĺ¼":3248,"ances":3249,"ream":3250,"Ġsomething":3251,"ĠìĿĮìĭĿ":3252,"ĠìĹ¬íĸī":3253,"Ġdue":3254,"Ġindivid":3255,"com":3256,"Ġì²«":3257,"ĠPI":3258,"ird":3259,"Ġprovide":3260,"ĠíĶ¼ë¶Ģ":3261,"Ġvalues":3262,"Ġnever":3263,"Ġbro":3264,"ret":3265,"ĠFr":3266,"êº¼":3267,"Ġnorm":3268,"Ġ}^":3269,"íĺ¼":3270,"Ġlittle":3271,"ÑĤ":3272,"ëľ":3273,"ĠìĦ¼":3274,"Ġìĸ´ëĸ»":3275,"Ġìļ´ëıĻ":3276,"Ġwid":3277,"ëķĮ":3278,"Ġmanag":3279,"ĠThese":3280,"ĠíĦ°":3281,"Ġpred":3282,"Ġcontent":3283,"Ġíĭ°":3284,"hem":3285,"Ġíķ´ëıĦ":3286,"Ġbook":3287,"ĠëįĶëĭĪ":3288,"Ġbody":3289,"Ġenv":3290,"Ġëĸ¨":3291,"Ġris":3292,"ĠURL":3293,"Ġêµ¬ìļĶ":3294,"ĠCol":3295,"Ġabove":3296,"Ġì¿":3297,"Ġì£½":3298,"ìĸ´ëĤĺ":3299,"Ġeffect":3300,"ĠáĦĴáĦĴ":3301,"Ġclaim":3302,"Ġë³´ìĹ¬":3303,"Ġterm":3304,"ĠNone":3305,"Ġcalled":3306,"ĠëĶ±":3307,"ĠìĹĦë§Ī":3308,"Ġ}{":3309,"Ġorig":3310,"ĠëĤ´ìļ©":3311,"Ġrepresent":3312,"AN":3313,"Ġap":3314,"Ġrepl":3315,"ension":3316,"ìĹ´":3317,"ml":3318,"ì¸ł":3319,"ĠíĴĢ":3320,"ê¹Ģ":3321,"Ġcho":3322,"ìķ¡":3323,"Ġrange":3324,"Ġë°©ë¬¸":3325,"Ġpay":3326,"ĠìĹŃìĭľ":3327,"ĠìĦ¤ëªħ":3328,"ĠìĦłíĥĿ":3329,"targ":3330,"ĠíĮĢ":3331,"ST":3332,"ina":3333,"Ġavailable":3334,"lu":3335,"Ġê²°ê³¼":3336,"Ġsingle":3337,"Ġbi":3338,"Ġopp":3339,"Ġìļ¸":3340,"Ð¸":3341,"Ġarea":3342,"urs":3343,"ocial":3344,"Ġfail":3345,"Ġexc":3346,"ĠìĤ¬íļĮ":3347,"Ġcheck":3348,"Ġdays":3349,"Ġinput":3350,"Ġaccess":3351,"Ġëĸł":3352,"ìĿ½":3353,"Ġcreate":3354,"Ġside":3355,"Ġbegin":3356,"de":3357,"Ġì£¼ë¬¸":3358,"Ġfamily":3359,"ope":3360,"Ġindividual":3361,"Ġhard":3362,"Ġ$.":3363,"itch":3364,"Ġê°ĲìĤ¬":3365,"Ġê·¸ëłĩ":3366,"aper":3367,"mp":3368,"ats":3369,"ë¡Ģ":3370,"Ġwhether":3371,"ĠRes":3372,"ìĿ´íĬ¸":3373,"Ġiniti":3374,"Ġstep":3375,"Ġë¯¸êµŃ":3376,"ĳ¸":3377,"ending":3378,"ìĺĢ":3379,"lected":3380,"ED":3381,"ìŁģ":3382,"oot":3383,"Ġinvol":3384,"Ġ~~~":3385,"Ġmus":3386,"ë°±":3387,"ëħĲ":3388,"ĠëĿ¼ë©´":3389,"St":3390,"uro":3391,"sc":3392,"ĠìĿĢëį°":3393,"Ġspan":3394,"Ġbelie":3395,"ê·¹":3396,"gen":3397,"Ġapproach":3398,"Ġë³´ëĤ´":3399,"ĠãĢ":3400,"ëĭ¤ê³ł":3401,"Ġemploy":3402,"tively":3403,"Ġperiod":3404,"ĠìĿ½":3405,"Ġlabel":3406,"Ġë§Īëĭ¤":3407,"Ġenerg":3408,"ĠSo":3409,"Ġplan":3410,"Ġur":3411,"Ġmathb":3412,"Ġë¹¨":3413,"Ġìĺ¬ëĿ¼":3414,"Ġcy":3415,"Ġlength":3416,"ì§Ŀ":3417,"Ġfull":3418,"ister":3419,"Ġê´ľ":3420,"Ġcome":3421,"Ġhist":3422,"Ġê¹¨":3423,"Ġtrue":3424,"Ġevent":3425,"Ġtarg":3426,"Ġthings":3427,"ĠìĿ´íĽĦ":3428,"ajor":3429,"Ġder":3430,"Ġalways":3431,"ron":3432,"ĠAt":3433,"IC":3434,"Ġstrong":3435,"Ġshown":3436,"Ġreason":3437,"utes":3438,"jects":3439,"Ġrate":3440,"ê¸´":3441,"ĠEn":3442,"Ġê°ĸ":3443,"ëłĮ":3444,"ĠìĮ":3445,"Ġë¶ģ":3446,"Ġíľ´":3447,"ë¹ĦìĬ¤":3448,"Ġë°ľìĥĿ":3449,"Ġcomb":3450,"Ġhaving":3451,"Ġsens":3452,"uit":3453,"Ġkeep":3454,"Ġëĭµ":3455,"Ġeng":3456,"Ġ$,":3457,"cent":3458,"Ġë¡":3459,"Ġê³Ħíļį":3460,"!!":3461,"Ġben":3462,"Ġ})":3463,"Ġsimilar":3464,"Ġservice":3465,"ĠWhen":3466,"Ġleast":3467,"ì©":3468,"ait":3469,"sec":3470,"ì§Ģë§ī":3471,"Ġmag":3472,"Ġtotal":3473,"Ġê³łë¯¼":3474,"Ġschool":3475,"Ġseveral":3476,"Ġì¶ķ":3477,"Ġë°ĿíĺĶ":3478,"Ġbar":3479,"Ġintern":3480,"Ġêµ¬ë§¤":3481,"though":3482,"ĠìķĦì§ģ":3483,"Ġë¬":3484,"Ġprom":3485,"Ġê¿":3486,"ìģľ":3487,"play":3488,"Ġanti":3489,"ĠÏ":3490,"Ġdom":3491,"Ġì§ģìłĳ":3492,"Ġgive":3493,"hib":3494,"Ġhuman":3495,"Ġrequire":3496,"Ġìī½":3497,"PI":3498,"not":3499,"Ġì§ĢëĤĺ":3500,"Ġë§Ľì§ĳ":3501,"ìĹ¼":3502,"íĻķ":3503,"ĠìķĮëł¤":3504,"ĠOr":3505,"Ġtal":3506,"Ġresponse":3507,"raph":3508,"Ġgeneral":3509,"<|":3510,"Ġquestion":3511,"erc":3512,"outh":3513,"Ġíİĺ":3514,"Ġìĸ¼ë§Ī":3515,"Ġcolor":3516,"Ġerror":3517,"íĬ¼":3518,"ĠìĿ´ë¯¸":3519,"yle":3520,"ological":3521,"idd":3522,"Ġê¸°ëĮĢ":3523,"Ġhigher":3524,"atures":3525,"Ġprac":3526,"Ġunderstand":3527,"ĠThat":3528,"ëĤ¬":3529,"Ġlang":3530,"ental":3531,"Ġable":3532,"Ġprevious":3533,"Ġgame":3534,"Ġaction":3535,"Ġuntil":3536,"Ġfeel":3537,"let":3538,"ĠìĦ¸ê³Ħ":3539,"Ġê³¼ìłķ":3540,"Ġelectr":3541,"Ġfurther":3542,"af":3543,"Ġmess":3544,"Ġë§ĮëĤĺ":3545,"AL":3546,"ules":3547,"ĠSp":3548,"omm":3549,"ĠìĥĿíĻľ":3550,"ĠëĨį":3551,"ck":3552,"Ġpress":3553,"Ġë¨¸ë¦¬":3554,"Ġë£¨":3555,"Ġ><":3556,"Ġsuccess":3557,"Ġpx":3558,"Ġmeans":3559,"ecess":3560,"Ġdistrib":3561,"Ġíļ¨ê³¼":3562,"ocus":3563,"usion":3564,"ĠáĦıáĦıáĦı":3565,"iversity":3566,"tre":3567,"IT":3568,"Ġtreatment":3569,"ĠíĺĦìŀ¬":3570,"Ġgot":3571,"entr":3572,"ĠUnited":3573,"ĠCo":3574,"Ġinte":3575,"ìĪľ":3576,"ĠëıĦìĽĢ":3577,"Ġidentif":3578,"Ġenergy":3579,"Ġê½ĥ":3580,"aring":3581,"tor":3582,"Ġwon":3583,"ipp":3584,"ê³³":3585,"thers":3586,"Ġdevelopment":3587,"iction":3588,"Ġweek":3589,"Ġevidence":3590,"Ġchildren":3591,"lob":3592,"Ġfri":3593,"ìļĶìĿ¼":3594,"Ġjoin":3595,"ĠíĪ¬ìŀĲ":3596,"Ġconfig":3597,"indow":3598,"aces":3599,"ìĿ´ìĬ¤":3600,"ëĭµ":3601,"Ġprote":3602,"Ġstandard":3603,"tif":3604,"ume":3605,"Ġ\\[[@":3606,"Ġlater":3607,"Ġenc":3608,"Ġìª½":3609,"Ġ},":3610,"ĠPar":3611,"Ġë©Ķëī´":3612,"ĠíĮĶ":3613,"Ġpi":3614,"aster":3615,"ĠíĻį":3616,"ĠíĹ¤":3617,"Ġlik":3618,"Ġmove":3619,"ĠìħĶìĦľ":3620,"ĠBl":3621,"Ġspace":3622,"Ġíŀĺëĵ¤":3623,"CT":3624,"Ġprim":3625,"ĠíķĻêµĲ":3626,"Ġëª»íķĺ":3627,"Ġden":3628,"ĠíıŃ":3629,"Ġindex":3630,"Ch":3631,"Ġãĥ":3632,"Ġphys":3633,"Ġreview":3634,"tra":3635,"itor":3636,"Ġì¤ĳêµŃ":3637,"Ġneg":3638,"Ġ}(":3639,"Ġshort":3640,"Ġlower":3641,"ĠìļĶì¦ĺ":3642,"ĠìĥĪë¡ľ":3643,"ĠìŀĳìĹħ":3644,"Ġmajor":3645,"Ġpack":3646,"ables":3647,"Ġalign":3648,"verage":3649,"ued":3650,"Ġhour":3651,"Ġappear":3652,"íı°":3653,"ĠSe":3654,"Ġinclude":3655,"Ġìĸ´ëĸ»ê²Į":3656,"It":3657,"Ġoften":3658,"Ġcustom":3659,"ĠìłĢíĿ¬":3660,"ë§Ľ":3661,"ĠëĺĲíķľ":3662,"by":3663,"Ġalong":3664,"td":3665,"ê±¸":3666,"Re":3667,"Ġpy":3668,"ler":3669,"ĠìĦľë¹ĦìĬ¤":3670,"Ġexperim":3671,"Ġìłķë¶Ģ":3672,"####":3673,"Ġìį¨":3674,"Ġíĸīë³µ":3675,"lished":3676,"ĠëįĶëĿ¼ê³ł":3677,"Ġrelated":3678,"ided":3679,"íĤ¨":3680,"Ġ??":3681,"Ġcases":3682,"Ġ_{\\":3683,"Ġíķĺì§Ģë§Į":3684,"Ġê²½ìłľ":3685,"ember":3686,"Ġload":3687,"pha":3688,"\"\"\"":3689,"ially":3690,"atory":3691,"Ġbase":3692,"íıī":3693,"Ġcompon":3694,"da":3695,"ìĿ´ìĸ´":3696,"Ġdiscuss":3697,"±ìłķ":3698,"As":3699,"Ġmarket":3700,"íĥģ":3701,"Ġpo":3702,"Ġê¸°ë¶Ħ":3703,"Ġamong":3704,"Ġìµľê³ł":3705,"ĠëŀĢ":3706,"ìĿ´íģ¬":3707,"alk":3708,"Ġìĸ´ëł¤":3709,"Ġê¸°ëĭ¤":3710,"Ġoffic":3711,"uation":3712,"Ġì¶Ķê°Ģ":3713,"back":3714,"Ġìī¬":3715,"Ġãģ«":3716,"Ġsyn":3717,"ìļ°ë¦¬":3718,"Ġëĭ¤ëĭĪ":3719,"ĠëĤĺíĥĢ":3720,"Ġfar":3721,"ê°Ķ":3722,"ìĸ´ì§Ģ":3723,"Ġtrial":3724,"Ġë°Ģ":3725,"ìľ¨":3726,"Ġprot":3727,"Ġê°ľìĿ¸":3728,"AS":3729,"ĠìĿ´ë¦Ħ":3730,"Ġcertain":3731,"orth":3732,"ĠBr":3733,"iving":3734,"gether":3735,"Ġsource":3736,"mun":3737,"Ġenviron":3738,"ëĺĲ":3739,"ibr":3740,"ground":3741,"ì»¤":3742,"sw":3743,"Ġeither":3744,"Ġê°Ģì¡±":3745,"Ġê¶ģ":3746,"Ġrelations":3747,"ëħģ":3748,"Ġair":3749,"Ġtarget":3750,"íĦ":3751,"Ġexist":3752,"Ġë¨¼ìłĢ":3753,"ĠíĻľëıĻ":3754,"Ġê¸°ìĪł":3755,"Ġsite":3756,"Ġrequired":3757,"ĠìĹ°êµ¬":3758,"Ġfocus":3759,"ype":3760,"ories":3761,"uted":3762,"ĠCour":3763,"íĪ¬":3764,"umn":3765,"Ġstudies":3766,"ĠìĽĥ":3767,"ĠíķľíħĮ":3768,"ĠSch":3769,"Ġsure":3770,"Ġì°¨ëŁī":3771,"Ġì²ł":3772,"Ġoffer":3773,"Ġsection":3774,"asing":3775,"Ġsat":3776,"ĠíĴį":3777,"ĠëĮĢíķĻ":3778,"ĠìŀĶ":3779,"ĠStates":3780,"duction":3781,"Ġì°¾ìķĦ":3782,"ique":3783,"ĠìĬ¤ëŁ¬":3784,"olution":3785,"aken":3786,"ands":3787,"ĠìĺģíĻĶ":3788,"utions":3789,"ĠëĤĺê°Ģ":3790,"eters":3791,"Ġmaking":3792,"Ġkind":3793,"Ġê¸°ìĸµ":3794,"ĠëįĶëĿ¼ê³łìļĶ":3795,"Ġdetail":3796,"Ġdat":3797,"Ex":3798,"Ġê¹Ķ":3799,"ãģŁ":3800,"ìķĪëħķ":3801,"ĠìĨĮë¦¬":3802,"Ð½":3803,"ready":3804,"Ġë¶Ļ":3805,"ĠBe":3806,"Ġê¾¸":3807,"Ġgovernment":3808,"íĨ":3809,"ĠìĨĮê°ľ":3810,"ogn":3811,"conom":3812,"Ġsuper":3813,"oney":3814,"íį¼":3815,"udg":3816,"ET":3817,"Ġenti":3818,"tell":3819,"ëŀľëĵľ":3820,"Ġmill":3821,"ìĸ¼":3822,"ĩ´":3823,"Ġlink":3824,"Ġhttp":3825,"Ġê±±ìłķ":3826,"Ġê³µê°Ħ":3827,"plic":3828,"ĠìŀĲê¸°":3829,"ĠíļĮìĤ¬":3830,"Ġestim":3831,"Ġaway":3832,"Ġê³µë¶Ģ":3833,"Ġdate":3834,"Ġê´ľì°®":3835,"Ġsocial":3836,"ë²½":3837,"ĠëĤĺìĻĶ":3838,"Ġsal":3839,"ĠAmerican":3840,"Ġtemper":3841,"resp":3842,"ëŀĲ":3843,"Ġê±°ëĵł":3844,"Ġflow":3845,"ĠëĤĺìļĶ":3846,"augh":3847,"Ġworking":3848,"Ġwar":3849,"ë²Į":3850,"ources":3851,"icy":3852,"endent":3853,"Ġobject":3854,"Ġsequ":3855,"Ġhold":3856,"Ġfrequ":3857,"ìĬ¨":3858,"Ġrest":3859,"Ġexperience":3860,"Ġage":3861,"Ġê°ĳ":3862,"Ġmodels":3863,"ĠìĺĪìłķ":3864,"ĠCal":3865,"Ġauthor":3866,"ĠëĤĺëĿ¼":3867,"Ġíķľëĭ¤ê³ł":3868,"ìĹĩ":3869,"raw":3870,"ë¡ľëĤĺ":3871,"Ġlot":3872,"ector":3873,"Ġêº¼":3874,"Ġassociated":3875,"IS":3876,"Ñģ":3877,"Pro":3878,"arent":3879,"ĠìĭľíĤ¤":3880,"Ġê»ĺìĦľ":3881,"ì±Ħ":3882,"ides":3883,"ley":3884,"ëĿ¼ê³ł":3885,"ĠìĬµ":3886,"ê»´":3887,"Ġaddress":3888,"ĠëĿ¼ëıĦ":3889,"ë§ģ":3890,"Ġge":3891,"ĠëįĶìļ±":3892,"ì²ł":3893,"Ġhowever":3894,"ĠìĪł":3895,"íĥķ":3896,"ĠìľĦì¹ĺ":3897,"Ġdim":3898,"echan":3899,"alf":3900,"Ġinves":3901,"Ġìľ¡":3902,"ĠìĿ¼ë³¸":3903,"à¤":3904,"Ġwhy":3905,"Ġgre":3906,"Ġdone":3907,"ãĤĭ":3908,"atter":3909,"ke":3910,"ww":3911,"Ġì¹¨":3912,"Ġalpha":3913,"ĠìĿ¸ê°Ģ":3914,"ĠCO":3915,"Ġê¸°ë¡Ŀ":3916,"ators":3917,"Ġmeasure":3918,"Ġcaus":3919,"Ġcompany":3920,"Ġalready":3921,"Ġnecess":3922,"Ġmathcal":3923,"Ġìĥģëĭ´":3924,"ëĦĪë¬´":3925,"Ġinvestig":3926,"ĠSec":3927,"ĠMe":3928,"ĠFigure":3929,"Ġìĸ´ëĬĲ":3930,"Ġmicro":3931,"Ġcourse":3932,"ĠNe":3933,"ibility":3934,"Ġsearch":3935,"Ġíı¬ìĬ¤":3936,"ĠPr":3937,"arl":3938,"ÑĢ":3939,"leg":3940,"ohn":3941,"Ġey":3942,"Ġincrease":3943,"Ġeval":3944,"ìĭ¬íŀĪ":3945,"ered":3946,"Ġvi":3947,"Ġupd":3948,"Ġsurface":3949,"ĠìĿĺìĽĲ":3950,"Ġrequest":3951,"ë¦Ń":3952,"Ġep":3953,"Ġìĭ¸":3954,"Ġfore":3955,"ĠEng":3956,"Ġmar":3957,"Ġwomen":3958,"Ġlevels":3959,"ĠìķĦì¹¨":3960,"Ġtes":3961,"onstr":3962,"ìı":3963,"Ġestab":3964,"Ġchanges":3965,"Ġmass":3966,"Ġìĸ´ëıĦ":3967,"Ġann":3968,"AA":3969,"tu":3970,"ĠìĹħì²´":3971,"ook":3972,"·°":3973,"ĠìľĦìĽĲ":3974,"ID":3975,"Ġlarg":3976,"Ġê·¸ëłĩê²Į":3977,"Ġproject":3978,"Ġï":3979,"Ġconditions":3980,"Ġê±°ë¦¬":3981,"oph":3982,"Ġì§ľ":3983,"Ġwin":3984,"ìĶĢ":3985,"Ġperformance":3986,"ole":3987,"Ġregion":3988,"Ġcontr":3989,"Ġple":3990,"Ġëģ¼":3991,"To":3992,"Ġart":3993,"Ġgroups":3994,"Ġren":3995,"ĠíĬ¹íŀĪ":3996,"ograph":3997,"Ġë³´íĹĺ":3998,"lood":3999,"ser":4000,"ney":4001,"Con":4002,"Ġê°ľë°ľ":4003,"uture":4004,"Ġrisk":4005,"tics":4006,"Ġ='":4007,"ê·¸ëŀĺìĦľ":4008,"Ġtit":4009,"Ġapplication":4010,"Ġrole":4011,"Ġì¤ĺ":4012,"ĠìĺĨ":4013,"Ġoutput":4014,"Ġinj":4015,"Ġìĸĺ":4016,"ĠCR":4017,"from":4018,"Ġë¬¼ë¡ł":4019,"Ġdocument":4020,"ĠCoun":4021,"Ġìļ´ìĺģ":4022,"ãĥ¼":4023,"Ġê²°ìłķ":4024,"ĠìĻĦìłĦ":4025,"Ġtre":4026,"Ġìĸ¼êµ´":4027,"Ġë°¤":4028,"Ġeffects":4029,"ests":4030,"ify":4031,"ëĭ¥":4032,"Ġupon":4033,"mission":4034,"Ġjob":4035,"time":4036,"Ġbit":4037,"Ġê³łê°Ŀ":4038,"Ġversion":4039,"ung":4040,"ectively":4041,"set":4042,"Ġrespons":4043,"Ġë¯¿":4044,"Ġë³ĳìĽĲ":4045,"Ġìĩ":4046,"Ġque":4047,"Ġsystems":4048,"ë¦¬ìĬ¤":4049,"Ġcard":4050,"anti":4051,"Ġnetwork":4052,"ë¨¹":4053,"cle":4054,"Ġactivity":4055,"Ġpropos":4056,"ìľĦê¸°":4057,"Ġmatch":4058,"order":4059,"ĠëĤ®":4060,"ĠCourt":4061,"Ġterms":4062,"Ġmor":4063,"Ġë§ĲìĶĢ":4064,"ë°Ģ":4065,"Ġëħ¼":4066,"Ġlove":4067,"ison":4068,"ids":4069,"Ġblock":4070,"ì§ķ":4071,"Ġsent":4072,"Ġtogether":4073,"Ġdidn":4074,"Ġæľ":4075,"Ġacross":4076,"ĠìĬ¬":4077,"Ġìłľê³µ":4078,"ĠII":4079,"Ġearly":4080,"ĠíĥĪ":4081,"Ġì§ĢìļĶ":4082,"Ġìĸ´ëĶĶ":4083,"íĬ¹":4084,"ĠìºĲ":4085,"ĠíĥĦ":4086,"...":4087,"íĥĦ":4088,"Ġelse":4089,"isc":4090,"Ġstructure":4091,"Ġdeb":4092,"ĠìĿĳ":4093,"Ġproperty":4094,"Ġreported":4095,"ortun":4096,"Ġ\\].":4097,"Ġì°©":4098,"Ġparticip":4099,"ĠíĮĲë§¤":4100,"ĠëĤ´ëł¤":4101,"íķĳ":4102,"Ġcomplex":4103,"Ġpaper":4104,"Ġspecial":4105,"})":4106,"Ð¾Ð":4107,"ĠÃĲ":4108,"sequ":4109,"íħľ":4110,"ding":4111,"ĠëĤĺìĻĢ":4112,"Ġëī´":4113,"Ġnormal":4114,"Ġprovided":4115,"Ġcontrib":4116,"Ġhouse":4117,"reg":4118,"Ġì»¤íĶ¼":4119,"ĠUniversity":4120,"ĠëĤĺìĺ¨":4121,"Ġdise":4122,"Ġexpression":4123,"ounds":4124,"Ġê¸°ì¤Ģ":4125,"Ġroom":4126,"Ġcost":4127,"íĨµëł¹":4128,"Ġìĭľì¼ľ":4129,"Ġê¸°ê°Ħ":4130,"Ġsepar":4131,"ĠìĽĮ":4132,"Ġìķī":4133,"ĠMy":4134,"ĠëĶĶìŀĲ":4135,"Ġreach":4136,"Ġë§Įì¡±":4137,"Ġseen":4138,"Ġtool":4139,"If":4140,"ino":4141,"Ġbecome":4142,"ë²ł":4143,"ĠíĻĪ":4144,"AC":4145,"sp":4146,"Ġreport":4147,"ê¹ĮìļĶ":4148,"LE":4149,"Ġëĵ£":4150,"ëĪĦ":4151,"lation":4152,"Ġmechan":4153,"Ġloss":4154,"Ġenough":4155,"ai":4156,"ëŀ¨":4157,"Ġvarious":4158,"uary":4159,"Ġë§Īì§Ģë§ī":4160,"Ġ{#":4161,"cer":4162,"Ġtell":4163,"ĠìķĮìķĦ":4164,"Ġvide":4165,"ĠWith":4166,"Ġparti":4167,"Ġquality":4168,"Ġìµľê·¼":4169,"Ġcou":4170,"Ġê·¸ëŀĺëıĦ":4171,"^^":4172,"Ġbehav":4173,"Ġsq":4174,"Ġmom":4175,"Ġäº":4176,"ë²Ķ":4177,"opy":4178,"Ġtd":4179,"Ġbenef":4180,"Ġcompared":4181,"Ġíĺ¹":4182,"ìĬ¤íģ¬":4183,"Ġáħ²áħ²":4184,"tax":4185,"ĠëĤ¨ìŀĲ":4186,"Ġsuggest":4187,"ìĹĦ":4188,"ëıĮ":4189,"Ġpotential":4190,"Ġwww":4191,"Ġpage":4192,"urity":4193,"Ġthird":4194,"ë¡ľê·¸":4195,"Ġstring":4196,"ìī¬":4197,"Ġê¸°ëĬ¥":4198,"Ġconduc":4199,"Ġwebs":4200,"anted":4201,"Ġenvironment":4202,"ĠâĢĭ":4203,"Ġcult":4204,"ĠOne":4205,"ring":4206,"Ġissue":4207,"ĠìłĦíĻĶ":4208,"Ġthought":4209,"ì¥":4210,"Ġpoli":4211,"Ġstyle":4212,"ĠState":4213,"Ġê¸°ë³¸":4214,"ude":4215,"ering":4216,"Ġthing":4217,"ga":4218,"Ġvir":4219,"Ġcri":4220,"ë¦½ëĭĪëĭ¤":4221,"Ġmultiple":4222,"Ġdescribed":4223,"Ġmil":4224,"Ġland":4225,"Ġweb":4226,"ĠìĺĪìļĶ":4227,"wards":4228,"Ġeconom":4229,"Ġens":4230,"Ġartic":4231,"ĠëĮĢíĨµëł¹":4232,"pro":4233,"Ġphoto":4234,"Ġë´ī":4235,"AM":4236,"ĠìĻķ":4237,"ì¯":4238,"Ġshows":4239,"Ġê²¨":4240,"enn":4241,"Ġdevice":4242,"ĠMay":4243,"Ġconst":4244,"imum":4245,"Ġservices":4246,"col":4247,"Ġaw":4248,"Ġ\\\\":4249,"Ġclear":4250,"Ġinstall":4251,"uth":4252,"Ġmeet":4253,"var":4254,"ĠMan":4255,"most":4256,"Ġdefault":4257,"Ġpriv":4258,"Ġë§ĺ":4259,"aff":4260,"side":4261,"Ġë¬´ìĹĩ":4262,"tml":4263,"ëĭ¤ëĬĶ":4264,"Ġê³łê¸°":4265,"Ġpositive":4266,"sh":4267,"ĠìŀĲìĹ°":4268,"Ġìĸ¸ìłľ":4269,"ĠìĤ¶":4270,"ĠìĦłë¬¼":4271,"Ġli":4272,"Ġtrad":4273,"ift":4274,"Ġproduct":4275,"ĠAss":4276,"Ġonce":4277,"Ġê±°ìĿĺ":4278,"Ġorg":4279,"irm":4280,"Ġê±°ëĵłìļĶ":4281,"ëłĪìĬ¤":4282,"ising":4283,"ê²¼":4284,"Ġface":4285,"ĠëĮĢë¡ľ":4286,"Ġregard":4287,"Ġê´Ģìĭ¬":4288,"ĠìĦłìĪĺ":4289,"ĠCan":4290,"uff":4291,"Ġ<|":4292,"ĠMar":4293,"tional":4294,"ĠSupp":4295,"Ġpor":4296,"ļĦ":4297,"Ġcm":4298,"Ġsaf":4299,"For":4300,"lex":4301,"ĠêµŃë¯¼":4302,"Ġothers":4303,"ëĶ©":4304,"Ġincreased":4305,"Ġfive":4306,"ones":4307,"ĠëĮĢìĥģ":4308,"Ġbelow":4309,"tiff":4310,"Ġë¶ĦìľĦê¸°":4311,"Ġmembers":4312,"ĠìľĦíķ´ìĦľ":4313,"ony":4314,"load":4315,"unch":4316,"Ġaccording":4317,"Ġobserved":4318,"Ġëĭ¤ëħĢ":4319,"Ġpain":4320,"ĠìĬ¤ëŁ½":4321,"Ġpoints":4322,"ìŀĲê¸°":4323,"Ġì¯":4324,"Ġdig":4325,"Ġ\".":4326,"Ġ\"]":4327,"ĠìłĢëħģ":4328,"Ġìı":4329,"Ġappe":4330,"ĠStr":4331,").":4332,"ì°Į":4333,"imal":4334,"Ġcountry":4335,"ì¶©":4336,"resh":4337,"ê·Ģ":4338,"Ġfix":4339,"Ġfactors":4340,"chie":4341,"Ġcame":4342,"íľ":4343,"ĠìĹ¬ìŀĲ":4344,"ê·¸ëŁ¬":4345,"ĠëĿ¼ìĦľ":4346,"Ġdefend":4347,"Ġintegr":4348,"ĠêµŃëĤ´":4349,"ĠTH":4350,"pper":4351,"taken":4352,"Ġrelationship":4353,"ĠRep":4354,"ê±°ë¦¬":4355,"Ġcannot":4356,"Ġaccount":4357,"Ġì½Ķë¡ľëĤĺ":4358,"Ġfuture":4359,"Cl":4360,"ION":4361,"ĠëĬ¥":4362,"Ġíĳ¸":4363,"truction":4364,"Ġpast":4365,"Ġrat":4366,"Ġexpress":4367,"Ġprior":4368,"ìħĶ":4369,"Ġendofsec":4370,"ê·ł":4371,"Ġtook":4372,"Ġë¬¸íĻĶ":4373,"ĠFe":4374,"Ġíķľëĭ¤ëĬĶ":4375,"Ġfood":4376,"Ġ...":4377,"Ġ||":4378,"Ġê·¼ëį°":4379,"Ġclose":4380,"respond":4381,"Ġdeg":4382,"ĠìĿ´ê²ĥ":4383,"oint":4384,"ìĿ´ë²Ī":4385,"Ġpub":4386,"Ġì¸¡":4387,"andom":4388,"ores":4389,"Ġansw":4390,"Ġseries":4391,"Ġlangu":4392,"import":4393,"Ġêµ¬ìĦ±":4394,"Ġcover":4395,"ĠëĬĲê»´":4396,"rt":4397,"ensive":4398,"ĠìĹ´ìĭ¬íŀĪ":4399,"ĠìĿ¼ë°ĺ":4400,"Ġutil":4401,"Ġsolution":4402,"Ġwidth":4403,"Ġbot":4404,"Ġìį":4405,"Ġamount":4406,"Ġìķħ":4407,"Ġëħ¸ëł¥":4408,"Ġconsidered":4409,"Ġps":4410,"Ġdisplay":4411,"Ġåħ":4412,"Ġmonths":4413,"īìŀ¥":4414,"Ġì¡°ìĤ¬":4415,"ĠëŃĶ":4416,"ledge":4417,"Ġarray":4418,"Ġobtained":4419,"Ġpercent":4420,"Ġmoney":4421,"Ġfinal":4422,"uration":4423,"Ġlimit":4424,"Ġrather":4425,"Ġsays":4426,"ĠAfter":4427,"aced":4428,"uter":4429,"ĠJohn":4430,"ambda":4431,"Ġstudents":4432,"ĠâĪĴ":4433,"Ġimprove":4434,"ĠAm":4435,"ĠëĶĶìŀĲìĿ¸":4436,"On":4437,"ãģ¦":4438,"Ġeffic":4439,"ĠìŀĲëıĻ":4440,"Ġfeatures":4441,"Ġanaly":4442,"Ľ°":4443,"Ġê·¸ê²ĥ":4444,"ë¶Ģë¶Ħ":4445,"ĠìķĶ":4446,"unction":4447,"Ġeduc":4448,"Ġra":4449,"ĠÂ°":4450,"Ġmm":4451,"____":4452,"ĠTable":4453,"ĠëĮ":4454,"Ġì¿ł":4455,"Ġcommunity":4456,"Ġëįķ":4457,"Ġdefin":4458,"Ģë¡ľ":4459,"Ġconcentr":4460,"Ġ->":4461,"ĠTrue":4462,"ĠíķĻìĥĿ":4463,"Ġmethods":4464,"ĠÂ±":4465,"ëĿ¼ìĿ´":4466,"Ġdou":4467,"íħĶ":4468,"ification":4469,"Ġoccur":4470,"Ġyoung":4471,"Ġdam":4472,"Ġtalk":4473,"Ġworks":4474,"Ġì¯¤":4475,"ĠìĿ´ëŁ¬":4476,"ĠëıĦìĭľ":4477,"Ġ{}":4478,"Ġintro":4479,"Ġappl":4480,"Ġexec":4481,"Ġflo":4482,"ĠÌ":4483,"Ġìĺ¬íķ´":4484,"ceed":4485,"áħ®":4486,"Ġìł¸":4487,"ĠìķĦëŀĺ":4488,"ĠìĦ¼íĦ°":4489,"ĠìĦ¤ì¹ĺ":4490,"ê³łê¸°":4491,"íĮ¨":4492,"ëłµ":4493,"Ġsignal":4494,"ĠìĻĢìĦľ":4495,"Ġíĺ¼ìŀĲ":4496,"ried":4497,"Ġíı¬ìĬ¤íĮħ":4498,"Ġdeath":4499,"ìĽĥ":4500,"Ġë²Ķ":4501,"Ġseason":4502,"Ġê²½íĹĺ":4503,"ĠìĹ¬ìĦ±":4504,"tro":4505,"Ġadmin":4506,"Ġë§Īìĭľ":4507,"Ġìĭ«":4508,"Ġmind":4509,"ë´ī":4510,"ensity":4511,"ìĪĻ":4512,"Ġcorrespond":4513,"Ġfactor":4514,"Ġtry":4515,"Ġìľłì§Ģ":4516,"ĠìĿ¸íĦ°":4517,"ĠMr":4518,"ux":4519,"ĠìĪĻ":4520,"Ġìĺ·":4521,"lobal":4522,"ë»":4523,"ì°¸":4524,"Ġitem":4525,"ĠìĥģíĴĪ":4526,"Ġweight":4527,"Ġever":4528,"ìļ´ëį°":4529,"Ġnat":4530,"Ġtold":4531,"ĠìłĦì²´":4532,"ĠìĨ¡":4533,"ception":4534,"ĠEd":4535,"ĠìĿĺë¯¸":4536,"ëł´":4537,"Ġpick":4538,"ires":4539,"Ġlearn":4540,"Ġdecre":4541,"Ġdiffic":4542,"Ġpattern":4543,"iam":4544,"ĠíĿĲ":4545,"]{":4546,"cep":4547,"Ġsimple":4548,"UM":4549,"ĠëıĦì°©":4550,"Ġcos":4551,"Ġvalid":4552,"Ġclos":4553,"Ġë§ŀì¶":4554,"ival":4555,"use":4556,"ĠìĦ¸ìĥģ":4557,"ìĨĲ":4558,"ĠêµŃê°Ģ":4559,"ë¶ĢíĦ°":4560,"Ġìĺ¤ëŀĺ":4561,"Ġmakes":4562,"Ġachie":4563,"ives":4564,"oman":4565,"ero":4566,"ĠPol":4567,"à¸":4568,"Ġtaken":4569,"Ġê°ľìĽĶ":4570,"Ġbound":4571,"Ġdiag":4572,"Ġìĸ»":4573,"Ġmedia":4574,"ference":4575,"ĠíĻĺê²½":4576,"Ġë¿Į":4577,"ze":4578,"Ġìĩ¼":4579,"ĠìłľìĿ¼":4580,"ĠãĤĴ":4581,"RE":4582,"ĠTe":4583,"Ġlooking":4584,"Ġ$$\\":4585,"ians":4586,"ĠìĿµ":4587,"Ġcalcul":4588,"Ġcross":4589,"ened":4590,"ĠìĪĺìĹħ":4591,"Ġåı":4592,"ĠìķĦíĮĮ":4593,"íĶĪ":4594,"Ġtemperature":4595,"Ġinflu":4596,"ĠìŀĲì£¼":4597,"ĠìĭŃ":4598,"Ġnull":4599,"Ġcoll":4600,"Ġdoesn":4601,"inary":4602,"Ġblack":4603,"ĠíķŃìĥģ":4604,"ë¥¼":4605,"ĠìĨĶ":4606,"oup":4607,"ĠGen":4608,"Ġhtml":4609,"Ġnode":4610,"Ġlikely":4611,"Ġtax":4612,"Ġë°ĶëĿ¼":4613,"Ġyet":4614,"Ġgene":4615,"RO":4616,"Ġhistory":4617,"ĠBy":4618,"ì¹ł":4619,"osp":4620,"ĠDr":4621,"Ġì»¨":4622,"ĠìĽĢ":4623,"ì«":4624,"ĠÎ¼":4625,"ĠIm":4626,"ply":4627,"Ġnear":4628,"artment":4629,"ĠìĿ´íķ´":4630,"Ġå¹":4631,"Ġê¼¬":4632,"Ġtypes":4633,"Ġseem":4634,"ê°ĳ":4635,"rix":4636,"Ġill":4637,"Ã¡":4638,"odes":4639,"Ġadj":4640,"ĠëĮĢíķ´ìĦľ":4641,"Ġë½":4642,"ĠçļĦ":4643,"Ġprec":4644,"Ġå¤":4645,"Ġsix":4646,"Ġhalf":4647,"ê·ľ":4648,"Ġë¶Ģëĭ´":4649,"ĠìĥĪë¡ľìļ´":4650,"Ġactually":4651,"ëĦĲ":4652,"Ġframe":4653,"aintiff":4654,"Ġwhole":4655,"une":4656,"Ġíį¼":4657,"ìĽĮìĦľ":4658,"Ġíķ´ê²°":4659,"ĠSee":4660,"ished":4661,"pose":4662,"ìķĻ":4663,"Ġproducts":4664,"Ġcut":4665,"Ġíı¬íķ¨":4666,"Ġstatus":4667,"ê³¨":4668,"Ġê²ĮìŀĦ":4669,"Ġcity":4670,"Ġproduction":4671,"Ġë§Ŀ":4672,"Ġsn":4673,"ĠDec":4674,"Ġì¥":4675,"Ġì¤¬":4676,"ĠìµľëĮĢ":4677,"Ġdoing":4678,"Ġë§¤ìļ°":4679,"ìĬ¬":4680,"Ġgrowth":4681,"Ġâģ":4682,"íĥĪ":4683,"ĠìķĦìķ¼":4684,"Ġoptim":4685,"Ġ-----------------":4686,"ĠIN":4687,"Ġund":4688,"get":4689,"amm":4690,"Ġwent":4691,"Ġassess":4692,"ĠAc":4693,"Ġìĸĺê¸°":4694,"oud":4695,"ĠíĴĪ":4696,"ĠëĬĲëģ¼":4697,"ĠGod":4698,"ystem":4699,"ru":4700,"ĠìłľëĮĢë¡ľ":4701,"Ġê·¹":4702,"ĠíĻľìļ©":4703,"Ġê¶ģê¸Ī":4704,"ìľµ":4705,"Ġobj":4706,"avel":4707,"fficient":4708,"ĠEuro":4709,"amma":4710,"Ġmatter":4711,"Ġperformed":4712,"Ġteach":4713,"oo":4714,"medi":4715,"Ġadded":4716,"Ġë¹¼":4717,"ìĹĨìĿ´":4718,"pri":4719,"ls":4720,"Ġneeds":4721,"Ġissues":4722,"ills":4723,"Ġ&&":4724,"trac":4725,"name":4726,"omes":4727,"Ġì¹¼":4728,"Ġnight":4729,"ë¬´ë¦¬":4730,"arning":4731,"ëįķ":4732,"Ġagre":4733,"Ġmessage":4734,"Ġì±Ļ":4735,"Ġchall":4736,"Ġstrateg":4737,"Ġonline":4738,"Ġimplement":4739,"How":4740,"vent":4741,"Ġ\",\"":4742,"Ġmu":4743,"her":4744,"Ġelement":4745,"uments":4746,"ê³¡":4747,"Ġdemonstr":4748,"dro":4749,"Ã³":4750,"Ġëļ":4751,"Ġfav":4752,"Ġê¹ĶëģĶ":4753,"ê·¼ëį°":4754,"ĠCar":4755,"Ġshowed":4756,"tition":4757,"Ġwebsite":4758,"ĠThen":4759,"ĠMore":4760,"ëŀµ":4761,"ĠìĦ±ìŀ¥":4762,"ĠëĿ¼ë©°":4763,"Tr":4764,"Ġess":4765,"Ġtitle":4766,"ëĭ¤ë©´":4767,"where":4768,"ĠPC":4769,"Ġul":4770,"xim":4771,"Ġë§¥":4772,"osition":4773,"Ġchann":4774,"Ġdeal":4775,"astic":4776,"Ġvia":4777,"Ġê°Ģìł¸":4778,"Ġfilm":4779,"thon":4780,"ĠComp":4781,"Ġclin":4782,"Ġpersonal":4783,"Ġcommit":4784,"Ġcause":4785,"ĠìŀĲì²´":4786,"OS":4787,"Ġincluded":4788,"tention":4789,"Ġë¹µ":4790,"Ġdefined":4791,"Ġsex":4792,"Ġrow":4793,"Ġindep":4794,"bol":4795,"onic":4796,"ĠëĽ°":4797,"pped":4798,"tag":4799,"Ġìŀĸ":4800,"izing":4801,"Ġinitial":4802,"uly":4803,"ĠRo":4804,"ĠìĿ´ëĿ¼ê³ł":4805,"Ġíıīê°Ģ":4806,"Ġcreat":4807,"ref":4808,"Ġìľ¤":4809,"Ġgrad":4810,"ìŀ¡":4811,"na":4812,"íĴį":4813,"ë¨¸ëĭĪ":4814,"Name":4815,"Ġsil":4816,"Ġë¶ĢìĤ°":4817,"ĠSte":4818,"ĠìĿ¸ëį°ìļĶ":4819,"pecially":4820,"Ġaverage":4821,"ì¦Į":4822,"verse":4823,"ĠìĤ°ìĹħ":4824,"print":4825,"ĠìĥģëĮĢ":4826,"Ġviol":4827,"dd":4828,"type":4829,"Ġê²ĢìĤ¬":4830,"Ġalmost":4831,"Ġrandom":4832,"Ġentire":4833,"cript":4834,"times":4835,"aging":4836,"ĠíĻĶìŀ¥":4837,"go":4838,"illed":4839,"ĠìĤ¬ê³ł":4840,"Ġëħ¸ëŀĺ":4841,"Ġproblems":4842,"Ġìľłëªħ":4843,"ãģĦ":4844,"ilities":4845,"Ġsample":4846,"ĠPat":4847,"ynam":4848,"box":4849,"Ġê¸°ê´Ģ":4850,"ê¹Ĳ":4851,"ĠíĿ¬":4852,"Ġtrack":4853,"íķĺì§Ģë§Į":4854,"ĠWor":4855,"ĠìŀĲìĦ¸":4856,"ĠìĿ´ìĸ´":4857,"Ġcolumn":4858,"ĠMed":4859,"Ġstory":4860,"Ġsqrt":4861,"Ġang":4862,"Ġë©ĭ":4863,"fact":4864,"utr":4865,"ĠíĻ©":4866,"ĠST":4867,"Ġblood":4868,"Ġparty":4869,"Ġvideo":4870,"ĠíĨ":4871,"Ġìĭłì²Ń":4872,"ball":4873,"ħëĭĪëĭ¤":4874,"ored":4875,"Ġï¸":4876,"Ġoriginal":4877,"Ġbox":4878,"Ġcook":4879,"ĠìķĪìłĦ":4880,"Ġ[@":4881,"ÃŃ":4882,"Ġrespectively":4883,"ulated":4884,"ìķĶ":4885,"Ġëĭ¤ë¥´":4886,"ĠSome":4887,"Ġconsist":4888,"gress":4889,"Ġnp":4890,"Ġlin":4891,"Ġìłķë¦¬":4892,"ication":4893,"Ġasked":4894,"ëĶĶìĸ´":4895,"Ġë°ĶëŀĮ":4896,"Ġsqu":4897,"Ġreceived":4898,"Ġfit":4899,"ìĭľìķĦ":4900,"Ġìĭłê²½":4901,"He":4902,"Ġdifference":4903,"gor":4904,"Ġlat":4905,"Ġprotein":4906,"ĠìĦ±ê³µ":4907,"Ġstates":4908,"AP":4909,"Ã¤":4910,"ãĥ³":4911,"Ġë©Ģ":4912,"Ġìĸ´ë¦°":4913,"Ġwindow":4914,"ìŃ":4915,"Ġëħ¹":4916,"atively":4917,"Ġprovides":4918,"ĠìĿ¸íķ´":4919,"OT":4920,"Ġevents":4921,"ĠìĪľê°Ħ":4922,"onal":4923,"vert":4924,"ëŁ´":4925,"Ġï¸ı":4926,"Ġrecogn":4927,"Ġwords":4928,"AD":4929,"Ġìłľì£¼":4930,"íķĦ":4931,"log":4932,"ëĭĪê¹Į":4933,"Ġnecessary":4934,"Ġì°¨ìĿ´":4935,"Ġphase":4936,"ĠìĭľíĹĺ":4937,"ĠëĶ¸":4938,"Ġadditional":4939,"Ġmathbb":4940,"Ġhours":4941,"Ġthus":4942,"Ġste":4943,"Ġproto":4944,"truct":4945,"Ġê²¬":4946,"anced":4947,"Ġparameters":4948,"ĠìĿ´ëĤł":4949,"Ġê²°êµŃ":4950,"ilt":4951,"Ġdecision":4952,"ĠMin":4953,"ĠíĶ¼íķ´":4954,"Ġìľ¼ìĭľ":4955,"roll":4956,"istics":4957,"igma":4958,"esis":4959,"Ġdirection":4960,"---":4961,"Ġdisease":4962,"Ġtoday":4963,"Ġwhite":4964,"Ġheld":4965,"Ġìļķ":4966,"igr":4967,"fr":4968,"Ġspecies":4969,"ĠìĹ¬ë¦Ħ":4970,"Ġproperties":4971,"Ġactive":4972,"ë¦¬ìĸ´":4973,"ĠCor":4974,"ucle":4975,"Ġbreak":4976,"ĠëĤłìĶ¨":4977,"ĠëĺĲëĬĶ":4978,"ĠCD":4979,"ĠEurope":4980,"Ġcontext":4981,"Ġê°ľìĦł":4982,"ĠPe":4983,"ĠGu":4984,"Ġì£¼ë³Ģ":4985,"Ġê¸Īìľµ":4986,"Ġconsum":4987,"ìĿ´ì§Ģ":4988,"Ġcamp":4989,"eration":4990,"Ġwrite":4991,"ales":4992,"Ġpopulation":4993,"Ġdistribution":4994,"lying":4995,"Ġìĺ¤íĽĦ":4996,"Ġpolicy":4997,"ĠìĺĪìķ½":4998,"yp":4999,"Ġlive":5000,"Ġë¸Ķë¡ľê·¸":5001,"Ġê¿Ī":5002,"ĠâģĦ":5003,"Ġlanguage":5004,"Ġë³ĢíĻĶ":5005,"ìķĮ":5006,"ĠíħĲ":5007,"ĠPH":5008,"Ġneeded":5009,"Ġì¦Ŀê°Ģ":5010,"ĠDes":5011,"osph":5012,"elves":5013,"Ġëĵľë¦½ëĭĪëĭ¤":5014,"Ġwide":5015,"Ġcenter":5016,"ender":5017,"Ġìĺ¬ëł¤":5018,"Ġìĺģìĥģ":5019,"Ġexpected":5020,"taking":5021,"Ġëĺ":5022,"Ġdrug":5023,"vant":5024,"Ġstarted":5025,"Ġmap":5026,"ĠíĿĶ":5027,"cription":5028,"Ġvo":5029,"Ġsus":5030,"Ġformat":5031,"ĠGe":5032,"ëŃ":5033,"Ġwatch":5034,"Ġmillion":5035,"ĠDo":5036,"IG":5037,"Ġscale":5038,"ĠíĸĪìĹĪ":5039,"Ġì²ŃìĨĮ":5040,"Ġknowledge":5041,"Ġtraining":5042,"Ġì»¬":5043,"ĠëĦĵ":5044,"Ġëĵľë¦´":5045,"Ġcontain":5046,"Ġcreated":5047,"ĠìĹ¼":5048,"Ġ\\_":5049,"isted":5050,"ches":5051,"Ġlayer":5052,"Ġminutes":5053,"ken":5054,"Ġespecially":5055,"ĠYork":5056,"ĠìĭľìĬ¤":5057,"ĠHis":5058,"lor":5059,"Ġfoot":5060,"ĠìĦłìĥĿ":5061,"Ġfall":5062,"ĠDep":5063,"titution":5064,"ëĿ¼ìĿ¸":5065,"Ġquick":5066,"iation":5067,"ì³¤":5068,"Ġche":5069,"Ġmach":5070,"ĠëĶ°ë¥´":5071,"ava":5072,"Ġë°©ìĭĿ":5073,"ips":5074,"Id":5075,"Ġspl":5076,"Ġê·¸ëŁ¬ëĤĺ":5077,"ĠíķĺëĤĺëĭĺ":5078,"ĠìĦĿ":5079,"Ġë¹ĦêµĲ":5080,"ĠëĪĦêµ¬":5081,"Ġ></":5082,"aged":5083,"Ġoptions":5084,"Ġìŀĩ":5085,"Ġì°¸ìĹ¬":5086,"Ġmiss":5087,"ì§¸":5088,"Ġìłķìĭł":5089,"gorith":5090,"top":5091,"Ġax":5092,"Ġìĺ¬ë¦¬":5093,"You":5094,"Ġcat":5095,"Ġpan":5096,"Ġê·¸ë¦¬":5097,"Ġsignificantly":5098,"But":5099,"EL":5100,"Ġëľ¨":5101,"Ġimages":5102,"cy":5103,"ĠíŀĪ":5104,"Ġsym":5105,"Ġìŀħìŀ¥":5106,"ĠìĿ´ë£¨":5107,"Ġcontroll":5108,"Ġgetting":5109,"Ġë§¤ìĿ¼":5110,"Ġpressure":5111,"aid":5112,"ëŀľë§Į":5113,"ĠTw":5114,"Ġë¹Į":5115,"amed":5116,"Ġcred":5117,"íĽ":5118,"Ġmoment":5119,"Ġsem":5120,"ĠNot":5121,"ĠìĿ¼ëĭ¨":5122,"iting":5123,"Ġê·¸ë¦¼":5124,"íĭĢ":5125,"ĠBo":5126,"rror":5127,"âĢĭ":5128,"ief":5129,"ì§Ĳ":5130,"ĠíĽĦê¸°":5131,"umb":5132,"ëĥĲ":5133,"Ġê¸°ìŀĲ":5134,"Ġì§Ģë°©":5135,"Ġword":5136,"Ġtherefore":5137,"class":5138,"ae":5139,"Ġâĸ":5140,"ral":5141,"Ġox":5142,"Ġë£":5143,"Ġidea":5144,"Al":5145,"Ġìĭľì¦Į":5146,"ĠÂ§":5147,"Ġattack":5148,"ĠíĬ¹ë³Ħ":5149,"ternal":5150,"Ġaligned":5151,"Ġcomplete":5152,"Ġê°Ģìļ´ëį°":5153,"tific":5154,"Ġcompar":5155,"ĠAg":5156,"Ġemp":5157,"ĠCont":5158,"Ġìłķì±ħ":5159,"Ġtrying":5160,"ë³¼":5161,"ites":5162,"ĠìĽ¨":5163,"ening":5164,"Ġä»":5165,"ĠAN":5166,"Ġ~!":5167,"Ġanything":5168,"ëĦ·":5169,"Ġê°Ģê¹Į":5170,"ĠOb":5171,"ì¡¸":5172,"Ġfeature":5173,"Ġlambda":5174,"Ġperf":5175,"fully":5176,"Ġ*(":5177,"mitted":5178,"Ġgraph":5179,"ëľ»":5180,"There":5181,"Ġeasy":5182,"Ġlines":5183,"Ġë¶Ģì¡±":5184,"bstract":5185,"ĠGo":5186,"ention":5187,"Ġbad":5188,"Ġmember":5189,"rown":5190,"Ġfront":5191,"mon":5192,"Ġbelieve":5193,"Ġareas":5194,"come":5195,"Ġtra":5196,"Ġê·ľëª¨":5197,"ĠëĬ¦":5198,"ĠìĬ¤íĥĢìĿ¼":5199,"Ġinvest":5200,"Ġpoly":5201,"ĠíĻķìĭ¤":5202,"word":5203,"ĠëĮĢë¹Ħ":5204,"Ġeffective":5205,"Ġunit":5206,"Ġfalse":5207,"anks":5208,"ada":5209,"ĠìĺĪìĥģ":5210,"Ġproced":5211,"Ġcontact":5212,"ĠìĪĺì¤Ģ":5213,"ĠìĬ¤íĬ¸":5214,"Ġnothing":5215,"ëª»":5216,"rem":5217,"Ġdeveloped":5218,"Ġmi":5219,"que":5220,"Ġelect":5221,"Ġìĸ¼ë§ĪëĤĺ":5222,"Ġì½ĺ":5223,"ĠíĽĦë³´":5224,"ĠìĿ´ê±°":5225,"Ġë²Ħë¦¬":5226,"ĠOur":5227,"Ġcomes":5228,"icon":5229,"book":5230,"Ġground":5231,"```":5232,"ĠíĳľíĺĦ":5233,"osis":5234,"Ġìŀ¬ë¯¸":5235,"Ġëĸ¨ìĸ´":5236,"Ġattem":5237,"Ġdistr":5238,"Ġ}^{":5239,"tware":5240,"Ġë§Įëĵł":5241,"aint":5242,"Ġtaking":5243,"ged":5244,"ìĿ´ë¸Ķ":5245,"ams":5246,"ĠìĿ¸ê°Ħ":5247,"ìĿ¸íĬ¸":5248,"ises":5249,"Ġê³łìļĶ":5250,"Ġevalu":5251,"ĠìĥĿê¸°":5252,"ĠNational":5253,"ë²¤":5254,"ĠëĮĢë¶Ģë¶Ħ":5255,"ĠìĤ¬ê±´":5256,"Ġìĸ¸ëĭĪ":5257,"Ġmanagement":5258,"Ġìĭ¤ìłľ":5259,"ho":5260,"~~":5261,"Ġë¹Ħìļ©":5262,"Ġheight":5263,"oll":5264,"ĠVal":5265,"ĠìĭľìĦ¤":5266,"wise":5267,"Ġten":5268,"ê°Ļ":5269,"Ġ}}}":5270,"Ġsubst":5271,"PS":5272,"Ġ-------------------------":5273,"iddle":5274,"ĠíĸīìĤ¬":5275,"Ġconv":5276,"Ġinstead":5277,"Ġ=>":5278,"Ġshall":5279,"Ġì¦Ŀìĥģ":5280,"ëĪĪ":5281,"Ġìĺģíĸ¥":5282,"Ġë¹¨ë¦¬":5283,"Ġautom":5284,"ë§ĪíĬ¸":5285,"Ġì¶©ë¶Ħ":5286,"ĠMc":5287,"Ġusers":5288,"Ġëĸ¡":5289,"ê²Ģ":5290,"Ġemail":5291,"Ġë°ľíĳľ":5292,"Ġëª»íĸĪ":5293,"ĠIns":5294,"Ġnatural":5295,"ê·¸ëŀ¨":5296,"body":5297,"ĠJan":5298,"Ġíķ´ëĭ¹":5299,"Ġëľ»":5300,"ithub":5301,"Ġheart":5302,"hic":5303,"Ġë°°ìļ°":5304,"ges":5305,"Ġshare":5306,"ĠìĹ¬ëŁ¬ë¶Ħ":5307,"Ġë°ĶìĿ´":5308,"ĠìĭľìĬ¤íħľ":5309,"elt":5310,"Ġpresented":5311,"ych":5312,"Ġgas":5313,"Ġwalk":5314,"CC":5315,"Ġbeta":5316,"ING":5317,"Ġmusic":5318,"Ġnews":5319,"inally":5320,"Ġincludes":5321,"ulations":5322,"Ġjudg":5323,"Ġê²°íĺ¼":5324,"Ġãģ¯":5325,"ĠíıĲ":5326,"istance":5327,"ëį¸":5328,"Ġsubject":5329,"Ġscri":5330,"Ġë´Ħ":5331,"ĠDef":5332,"Ġìĸ´ëłµ":5333,"Ġlearning":5334,"Ġcry":5335,"Ġë§Īëł¨":5336,"ĠìķĮìķĦë³´":5337,"Ġê°ĢëĵĿ":5338,"Ġspeed":5339,"my":5340,"ĠDel":5341,"Ġrecomm":5342,"Ġbuilding":5343,"Ġquestions":5344,"ama":5345,"ĠìĿ´ëıĻ":5346,"Ġselect":5347,"Ġprofession":5348,"Ġitself":5349,"odel":5350,"Ġíĩ´":5351,"ëŀ¬":5352,"Ġarch":5353,"Ġprice":5354,"Ġê±°ëŀĺ":5355,"ining":5356,"ĠQu":5357,"Ġíķľëį°":5358,"Ġì§ĳì¤ĳ":5359,"ĠTV":5360,"Ġflu":5361,"Ġrecent":5362,"Ġë§Īë¬´ë¦¬":5363,"Ġprimary":5364,"mega":5365,"ìĿ´ëłĩê²Į":5366,"isf":5367,"¬ìĺģ":5368,"EM":5369,"Ġê²ģ":5370,"ĠíĶĦë¡ľê·¸ëŀ¨":5371,"ĠìĦľë¡ľ":5372,"rec":5373,"ĠRec":5374,"ĠCons":5375,"Ġì¹´ëĵľ":5376,"Ġassum":5377,"Ġpatient":5378,"Ġcompl":5379,"ë¨¼":5380,"Ġë§ģ":5381,"Ġconcern":5382,"íĹĪ":5383,"Ġfire":5384,"Ġetc":5385,"uk":5386,"Ġincreasing":5387,"Ġmut":5388,"duce":5389,"OU":5390,"And":5391,"ĠAcc":5392,"Ġfunctions":5393,"Ġmotion":5394,"Ġclient":5395,"Ġinvolved":5396,"IL":5397,"Ġ%,":5398,"Ġproposed":5399,"ards":5400,"ĠëĭŃ":5401,"asc":5402,"ìŀĶ":5403,"ì¼ĵ":5404,"Ð»":5405,"ĠThus":5406,"Ġasp":5407,"Ġseems":5408,"Ġê·¸ëŁ°ëį°":5409,"ĠìĺĪìģĺ":5410,"ĠAb":5411,";;":5412,"aving":5413,"íķ´ìĦľ":5414,"Ġê³Ħìķ½":5415,"Res":5416,"ĠFalse":5417,"ĠâĻ":5418,"Ġtransfer":5419,"Ġprobably":5420,"Ġaccur":5421,"Ġë¶ĦìĦĿ":5422,"urch":5423,"ĠëĤ´ë¶Ģ":5424,"Ġãģ§":5425,"ĠíĦ":5426,"Ġgithub":5427,"ĠëĤĺìĿ´":5428,"ìĹ¬ê¸°":5429,"ĠPer":5430,"Ġå¹´":5431,"Ġì£¼ì°¨":5432,"Ġlib":5433,"ĠíĮ¬":5434,"List":5435,"Ġsamples":5436,"aves":5437,"ìļĶì¦ĺ":5438,"Ġpm":5439,"ĠìĬĪ":5440,"Ġcorrect":5441,"Ġrunning":5442,"ĠìķĦíĮĮíĬ¸":5443,"Ġìĸ´ì©":5444,"),":5445,"Ġendoftext":5446,"Ġoption":5447,"etry":5448,"Ġelements":5449,"Ġreve":5450,"Ġì«":5451,"emb":5452,"roid":5453,"ĠìĪ¨":5454,"ogen":5455,"ë¦¬ìķĦ":5456,"Ġì§ĢëĤľíķ´":5457,"íĺľ":5458,"uster":5459,"Ġimpact":5460,"Ġerr":5461,"Ġalgorith":5462,"ìĬ·":5463,"Ġshape":5464,"Ġìłľìŀĳ":5465,"ĠPres":5466,"ĠëŃĶê°Ģ":5467,"Ġce":5468,"ĠInc":5469,"Ġengine":5470,"Ġmaintain":5471,"Ġbackground":5472,"ĠìĭĿìĤ¬":5473,"Ġë§¨":5474,"Ġopportun":5475,"Ġê·¸ëĮĢë¡ľ":5476,"Ġaud":5477,"Ġapproxim":5478,"Ġrepe":5479,"Ġì§ģìĽĲ":5480,"Ġscreen":5481,"Ġapplied":5482,"ëł¤ìĦľ":5483,"Ġ}$$":5484,"ìĤ¼":5485,"Ġfeed":5486,"EC":5487,"Ġê°Ħëĭ¨":5488,"omp":5489,"ĠìķĦê¸°":5490,"Ġconven":5491,"ìĿ´íĦ°":5492,"ĠGerm":5493,"Ġbecame":5494,"ìĻĦ":5495,"Ġdraw":5496,"Ġphysical":5497,"Ġfem":5498,"Ġexact":5499,"ana":5500,"oke":5501,"Ġdetermined":5502,"rew":5503,"Ġsomeone":5504,"Ġglobal":5505,"ĠìĥģìĬ¹":5506,"íĦ´":5507,"Ġfiles":5508,"ë¦¿":5509,"Ġfa":5510,"olve":5511,"Ġther":5512,"BC":5513,"ĠìŀĸìķĦ":5514,"ĠìĿ´ìĤ¬":5515,"Ġmolec":5516,"ĠCity":5517,"ili":5518,"this":5519,"ëĥĪ":5520,"Ġcommand":5521,"Ġquite":5522,"ĠIntern":5523,"itation":5524,"Ġsimply":5525,"Ġë»":5526,"ogle":5527,"Ġsecurity":5528,"Ġlocation":5529,"Ġìĵ¸":5530,"Ġlonger":5531,"ĠëįĶëĿ¼ëıĦ":5532,"Ġitems":5533,"Ġhot":5534,"Ġinside":5535,"Ġrang":5536,"arth":5537,"umber":5538,"Ġreference":5539,"enced":5540,"ĠãģĹ":5541,"ĠWorld":5542,"Ġconstant":5543,"Ġì¡Į":5544,"Ġêµ¬ìŀħ":5545,"Ġbring":5546,"Ġì²ĺë¦¬":5547,"Ġrelease":5548,"Ġì¢ħë¥ĺ":5549,"Ġinstance":5550,"Ġarticle":5551,"Ġìłģìļ©":5552,"Ġì´¬ìĺģ":5553,"ederal":5554,"Ġforce":5555,"aker":5556,"Ġê¸°ëĭ¤ë¦¬":5557,"Ġcontinu":5558,"kn":5559,"Ġpresence":5560,"Ġprinc":5561,"erve":5562,"down":5563,"Ġsense":5564,"Ġë¹Ī":5565,"Ġmys":5566,"Ġê¹Ĭ":5567,"Ġìłķìĥģ":5568,"Ġëĭ¹ìĭľ":5569,"ustry":5570,"Ġë¬´ìĬ¨":5571,"Ġexpect":5572,"ĠSim":5573,"ĠíĺĪ":5574,"Ġê°Ĳëıħ":5575,"Ġdirectly":5576,"ĠìŀĲëıĻì°¨":5577,"Ġê·¸ëŁ¼":5578,"Ar":5579,"Ġserver":5580,"Ġensure":5581,"Ġì¡´ìŀ¬":5582,"actions":5583,"Ġê³¤":5584,"Ġëĭ¨ê³Ħ":5585,"ĠWill":5586,"Ġrespect":5587,"Ġì°¬":5588,"Ġformer":5589,"Ġcancer":5590,"Ġround":5591,"Ġstop":5592,"ĠíĥĿ":5593,"elling":5594,"íĺ¹":5595,"Ġauto":5596,"ĠSep":5597,"Ġfilter":5598,"ìłķë§Ĳ":5599,"aled":5600,"Ġì£¼íĥĿ":5601,"arily":5602,"Ġcompan":5603,"rim":5604,"Ġnote":5605,"Ġcd":5606,"Ġkm":5607,"Ġdynam":5608,"Ġcore":5609,"ĠìĿĢíĸī":5610,"Ġresid":5611,"ĠServ":5612,"Ġmix":5613,"Ġë§¡":5614,"ĠíĻĺìŀĲ":5615,"Ġë°ľê²¬":5616,"ourn":5617,"Ġwall":5618,"Ġìĭ±":5619,"zy":5620,"Ġchem":5621,"ackage":5622,"ëįĺ":5623,"Ġhyp":5624,"Ġlimited":5625,"Ġforward":5626,"Ġhost":5627,"Ġhor":5628,"inding":5629,"Ġêµ¬ì¡°":5630,"ìĿ´ìłľ":5631,"arrow":5632,"etric":5633,"ĠAf":5634,"En":5635,"ĠSouth":5636,"ĠìĤ´ì§Ŀ":5637,"Ġir":5638,"ĠìĿ¸ìĤ¬":5639,"ging":5640,"Ġband":5641,"Ġeverything":5642,"BS":5643,"Ġoutside":5644,"Ġì¦ī":5645,"Ġsof":5646,"ĠíĺĦëĮĢ":5647,"Ġìľ¼ë©´ìĦľ":5648,"Ġtechnology":5649,"ops":5650,"ĠCent":5651,"uel":5652,"Ġì§ĢìĨį":5653,"Ġful":5654,"Ġimmun":5655,"ĠìłĢëł´":5656,"ously":5657,"ĠëĶ°ë¡ľ":5658,"Ġê²½ì°°":5659,"eful":5660,"ners":5661,"ì½¤":5662,"Ġíģ¬ë¦¼":5663,"Ġinhib":5664,"Ġ}_{":5665,"tee":5666,"earch":5667,"Ġgreater":5668,"Ġvehic":5669,"Ġusually":5670,"ìĨĮë¦¬":5671,"ìĭ¸":5672,"ĠåĲ":5673,"tivity":5674,"Ġìłķì¹ĺ":5675,"Ġpair":5676,"Ġì£¼ë§Ĳ":5677,"Ġstress":5678,"ĠID":5679,"eks":5680,"ìĿ¸ëĭ¤":5681,"Ġmode":5682,"ĠìĬ¤ëŁ¬ìļ´":5683,"Ġtransform":5684,"Ġhydro":5685,"ĠíķĻìĽĲ":5686,"Ġrev":5687,"ĠReg":5688,"ĠëĥĦ":5689,"ĠìŀĲìľł":5690,"ĠìĪĺìĪł":5691,"Ġdetermine":5692,"head":5693,"Ġfinanc":5694,"ë·°":5695,"Ġì¤ĳìĭ¬":5696,"istration":5697,"Ġdeep":5698,"more":5699,"Ġsequence":5700,"Ġport":5701,"Ġstage":5702,"ĠEl":5703,"Ġsumm":5704,"Ġlack":5705,"Ġë°Ķëŀ":5706,"Ġë¹Ľ":5707,"Ġpush":5708,"ë§İ":5709,"aly":5710,"ê·¸ëŀĺëıĦ":5711,"Ġcomponents":5712,"tries":5713,"Ġë¶Ģëª¨":5714,"Ġupdate":5715,"At":5716,"Ġê¸°ì¡´":5717,"ìľ¼ë©°":5718,"Ġmemory":5719,"ĠìĿ¼ë¶Ģ":5720,"Ġbir":5721,"Ġë¯¸ë¦¬":5722,"Ġrm":5723,"Ġgames":5724,"Ġbasis":5725,"ãĤĮ":5726,"else":5727,"When":5728,"Ġwritten":5729,"ĠHar":5730,"Ġë³´íĺ¸":5731,"task":5732,"Ġpurch":5733,"ì²Ļ":5734,"ĠìĿ¼ìĸ´ëĤĺ":5735,"Ġmer":5736,"Ġìĺ¤ë¹ł":5737,"Ġëįľ":5738,"Ġability":5739,"Ġ''":5740,"Ġprep":5741,"Ġinterp":5742,"Ġpolitical":5743,"bor":5744,"ĠSm":5745,"ONE":5746,"iet":5747,"Ġstay":5748,"Ġblog":5749,"]{}":5750,"Ġclean":5751,"irect":5752,"ĠìĿ´ê³³":5753,"apy":5754,"Ġë¹ĦìĬ·":5755,"miss":5756,"ĠëĮĢì¶ľ":5757,"Ġìķ½ê°Ħ":5758,"Ġ${\\":5759,"Ġìĥ¤":5760,"ĠSer":5761,"Ġnegative":5762,"ìķĦìĿ´":5763,"atform":5764,"ĠUs":5765,"Ġbehavior":5766,"ĠìĤ¬ìŀ¥":5767,"Ġpartial":5768,"ĠìłķíĻķ":5769,"ëŁŃ":5770,"Ġanim":5771,"ĠëĬ¥ëł¥":5772,"Ġbehind":5773,"ãģ®":5774,"īìŀ¥íŀĪ":5775,"Ġìĺģìĸ´":5776,"Ġselected":5777,"ìĮĢ":5778,"Ġcount":5779,"ĠìłĦë§Ŀ":5780,"ëıĻìķĪ":5781,"Ġê²¨ìļ¸":5782,"tick":5783,"vious":5784,"¾Į":5785,"ĠOp":5786,"Ġå®":5787,"ĠìŀĳíĴĪ":5788,"Ġê¸°íļĮ":5789,"Ġacid":5790,"Ġíİ¸íķĺ":5791,"Ġurl":5792,"Ġëĥī":5793,"reng":5794,"Ġëª»íķľ":5795,"joy":5796,"ìħ¨":5797,"Ġêµ¬ê²½":5798,"Ġë§Įëĵľ":5799,"Ġfriend":5800,"Ġavoid":5801,"Ġdifficult":5802,"Ġhom":5803,"Un":5804,"ĠìĤ¼ìĦ±":5805,"Ġë¸Įëŀľëĵľ":5806,"Ġsaw":5807,"Ġìķ¡":5808,"Ġë°ĸìĹĲ":5809,"ĠìĹ°ê²°":5810,"Ġenh":5811,"Ġê·¸ëŁ°ì§Ģ":5812,"Ġì°¸ê³ł":5813,"ĠìķĦë¹ł":5814,"ì§Ħì§ľ":5815,"Ġwait":5816,"Ġgir":5817,"ĠìĽĲëŀĺ":5818,"Ġtradition":5819,"Ġfrequency":5820,"ĠìĹ°ëĿ½":5821,"lege":5822,"Ġmention":5823,"rength":5824,"ĠíĭĢ":5825,"Ġì¢Į":5826,"ements":5827,"Ġos":5828,"ìĿ´ëĵľ":5829,"íĽĪ":5830,"ìĻķ":5831,"ë§ĪìŀĲ":5832,"Ġë°©ìĨ¡":5833,"RI":5834,"Ġtag":5835,"acc":5836,"ĠíĺĦìŀ¥":5837,"Ġê´Ģê³ĦìŀĲ":5838,"Ġroot":5839,"ëŀĻ":5840,"Ġdegree":5841,"Ġmathbf":5842,"Ġhimself":5843,"Ġëª¨ìĸĳ":5844,"Ġliter":5845,"ìĶ¬":5846,"ìĦ¸ìļĶ":5847,"Ġìķķ":5848,"Ġremain":5849,"ëĭĿ":5850,"Ġwanted":5851,"Ġfast":5852,"Ġê·ĢìĹ¬":5853,"Ġprefer":5854,"ĠAug":5855,"Ø§":5856,"ĠëģĮ":5857,"ĠEm":5858,"untu":5859,"Ġnature":5860,"ëª¬":5861,"Ġì§Ĳ":5862,"Ġeyes":5863,"amer":5864,"ĠìĥĿìĤ°":5865,"ĠçĶ":5866,"ĠMo":5867,"ĠãģĮ":5868,"tings":5869,"ades":5870,"Ġalthough":5871,"Ġtheory":5872,"tos":5873,"ĠNorth":5874,"ĠëŀįëĭĪëĭ¤":5875,"Ġê°ķíĻĶ":5876,"Ġnational":5877,"Ġdesigned":5878,"bit":5879,"acity":5880,"Ġcollection":5881,"ius":5882,"ĠìŀĲë§ĪìŀĲ":5883,"Ġê½¤":5884,"Ġdefendant":5885,"Ġpiec":5886,"reet":5887,"Ġbroad":5888,"Ġpractice":5889,"idge":5890,"Ġfollows":5891,"Ġaltern":5892,"Ġmedical":5893,"Ġmatrix":5894,"Ġhref":5895,"used":5896,"Ġë³Ħë¡ľ":5897,"Ġëĭ¬ëŁ¬":5898,"oad":5899,"Ġsound":5900,"Ġdest":5901,"ĠBar":5902,"ê²ĮìļĶ":5903,"Ġprevent":5904,"ĠìĭľëĮĢ":5905,"Ġslow":5906,"Ġsoftware":5907,"Ġbegan":5908,"Ġdiagn":5909,"anch":5910,"Ġìºł":5911,"Ġregular":5912,"rm":5913,"asons":5914,"Ġá":5915,"thern":5916,"Ġtask":5917,"ocr":5918,"Ġìĸ´ìļ¸":5919,"ê·¸ëŁ°":5920,"Ġìľ¨":5921,"ufact":5922,"ĠìĽĢì§ģ":5923,"Ġbottom":5924,"ĠìķĦë¦Ħ":5925,"Ġbutton":5926,"Ġëª¨ëį¸":5927,"Ġíķµ":5928,"ì°į":5929,"Ġë°ľìłĦ":5930,"Ġprop":5931,"Ġnor":5932,"ĠBrit":5933,"Ġsatisf":5934,"hood":5935,"ê½ĥ":5936,"Ġnucle":5937,"ĠFirst":5938,"ì¼°":5939,"ĠìķĦëĵ¤":5940,"###":5941,"ĠWhile":5942,"Ġì´ī":5943,"ëĶ°":5944,"Ġë¯¼ì£¼":5945,"ĠìļĶë¦¬":5946,"Ġrelative":5947,"Ġheav":5948,"Ġarr":5949,"Ġìĥģëĭ¹":5950,"Ġofficial":5951,"íľ´":5952,"aul":5953,"ëĭ¤ê°Ģ":5954,"Ġë¹łë¥´":5955,"Ġdu":5956,"ĠìķĪìłķ":5957,"Ġdistrict":5958,"Ġrespond":5959,"Ġë§¤ìŀ¥":5960,"bar":5961,"Ġì§Īë¬¸":5962,"Ġindustry":5963,"isions":5964,"AG":5965,"ĠìłĲìĭ¬":5966,"Is":5967,"Ġsle":5968,"icted":5969,"Ġparticularly":5970,"ĠìĨĮë¹Ħ":5971,"$$":5972,"Ġì½ĶìĬ¤":5973,"ëģĹ":5974,"Ġclinical":5975,"SS":5976,"Ġliving":5977,"tum":5978,"ëŁ¬ìĬ¤":5979,"OD":5980,"ĠTherefore":5981,"ë»Ĳ":5982,"argin":5983,"Ġcomponent":5984,"Ġê³µê°ľ":5985,"ĠÃĹ":5986,"Ġoil":5987,"lig":5988,"ì¸¡":5989,"Ġfriends":5990,"ĠAct":5991,"Ġexperi":5992,"Ġprivate":5993,"ĠWar":5994,"Ġpone":5995,"ĠNUM":5996,"bon":5997,"Ġëĭ¹ìĭł":5998,"Ġëª©íĳľ":5999,"Ġunc":6000,"Ġì¢ĭìķĦ":6001,"atus":6002,"ì§Ģê¸Ī":6003,"Ġhol":6004,"Ġrot":6005,"ecause":6006,"Ġclick":6007,"ê¹¨":6008,"Ġdark":6009,"Ġrights":6010,"orage":6011,"Ġindependent":6012,"abor":6013,"Ġunique":6014,"Ġì¶Ķì§Ħ":6015,"ĠìŀĳìĦ±":6016,"atives":6017,"Ġlate":6018,"Ġä½":6019,"ĠëĤ¨íİ¸":6020,"ê±°ìļ´":6021,"Ġìłľê±°":6022,"ague":6023,"Ġê°ĳìŀĲê¸°":6024,"Ġpython":6025,"ĠêµŃìłľ":6026,"ĠìĿ¸ìĥĿ":6027,"ache":6028,"ros":6029,"Ġdistance":6030,"ĠìĿ¼ìłķ":6031,"II":6032,"ĠìĿ¸ìłķ":6033,"ĠìĹŃíķł":6034,"Ġ_\\":6035,"Ġdecl":6036,"ĠìĿ¸ê¸°":6037,"Ġstore":6038,"Ġbill":6039,"Ġparen":6040,"Ġmob":6041,"Ġíı¬ìŀ¥":6042,"Ġplayers":6043,"Ġsusp":6044,"Ġdifferences":6045,"Ġperfect":6046,"ë²Ħì§Ģ":6047,"ĠìĿ¼ìĥģ":6048,"raft":6049,"eed":6050,"Ġfavor":6051,"Ġ\\,":6052,"Ġpurpose":6053,"Ġanswer":6054,"íģ´":6055,"Ġê°Ģìŀħ":6056,"ìĬ¤ë¡ľ":6057,"Ġgenerally":6058,"ĠíķĺëĬĺ":6059,"Ġimmedi":6060,"Ġfollowed":6061,"do":6062,"Type":6063,"ĠëłĮ":6064,"Ġë¶Īíİ¸":6065,"Ġê±´ë¬¼":6066,"Ġreduced":6067,"Ġì¡¸":6068,"Ġ}.":6069,"aries":6070,"ĠíĻĢ":6071,"Ġweeks":6072,"Ġë´Ĳìķ¼":6073,"Ġstrength":6074,"Ġargument":6075,"Ġdetails":6076,"Ġãģ¨":6077,"Ġê³łìŀĲ":6078,"ĠData":6079,"Ġíı¬ìĿ¸íĬ¸":6080,"ĠìĿ´ê²Į":6081,"Ġrestr":6082,"encies":6083,"Ġê¸¸ëŀĺ":6084,"Ġms":6085,"ìĬ¤íĥĢ":6086,"ì£½":6087,"Ġappropri":6088,"Ġways":6089,"ilon":6090,"ĠChris":6091,"ëĦĪì§Ģ":6092,"ula":6093,"Ġassign":6094,"plate":6095,"Ġderiv":6096,"Ġtum":6097,"ĠId":6098,"Ġcontract":6099,"Ġattrib":6100,"Ġìĺ¤ìłĦ":6101,"graph":6102,"By":6103,"Ġêµ¬ëĤĺ":6104,"Ġë¶Ħìķ¼":6105,"Ġë³´ìĺĢ":6106,"Ġsurv":6107,"ĠìĭľìĽĲ":6108,"apan":6109,"Ġbuilt":6110,"Ġìĭľê³µ":6111,"Ġ\":\"":6112,"Ġeducation":6113,"Ġë°ĳ":6114,"ĠìĽĲìĿ¸":6115,"Ġíķĳ":6116,"ĠåĪ":6117,"ìĬ´":6118,"ĠHere":6119,"Ġrates":6120,"Ġêµīìŀ¥íŀĪ":6121,"ĠRuss":6122,"Ġdensity":6123,"Ġlen":6124,"tiss":6125,"ĠìĨĮìĬ¤":6126,"ĠMarch":6127,"ê³¤":6128,"Ġë§Īì¹ĺ":6129,"takes":6130,"Ġbal":6131,"Ġìĭľê¸°":6132,"Ġled":6133,"Ġcharg":6134,"Ġë²ĦìĬ¤":6135,"ĠOF":6136,"ĠíĸīëıĻ":6137,"Ġì£¼ìŀ¥":6138,"cto":6139,"ì¹Ļ":6140,"Ġidentified":6141,"Ġoperator":6142,"Ġpret":6143,"Ġkg":6144,"Ġcountries":6145,"Ġpict":6146,"pping":6147,"ĠëĿ¼ìĿ¸":6148,"ĠìħĢ":6149,"rc":6150,"Sh":6151,"Ġæĸ":6152,"ĠëıĦìĻĢ":6153,"Ġpull":6154,"Ġvisit":6155,"Ġtiss":6156,"acement":6157,"ìĹŃìĭľ":6158,"Ġcopy":6159,"ìŀĲë¦¬":6160,"ĠìĻĦìĦ±":6161,"Ñĥ":6162,"Ġub":6163,"Ġapply":6164,"Ġfund":6165,"Ġrule":6166,"Ġë¶Ģíĥģ":6167,"ĩĮ":6168,"Ġ(-":6169,"Ġì³Ĳ":6170,"ĠìłĦíĺĢ":6171,"Ġdevices":6172,"Ġmaterials":6173,"Ġê¸°ìĹĲ":6174,"tree":6175,"Ġequal":6176,"Ġprime":6177,"Ġê°Ģì¹ĺ":6178,"Ġcer":6179,"Ġ=\\":6180,"ĠêµĲìĪĺ":6181,"ĠëĤĺë¬´":6182,"ĠAM":6183,"Ġnav":6184,"ĠSw":6185,"Ġë²Ĺ":6186,"Ġ$(":6187,"ĠìķĦëıĦ":6188,"Ġsoon":6189,"Ġappend":6190,"ĠëĤ¬":6191,"Ġåľ":6192,"ĠApr":6193,"Ġaccept":6194,"ê²ģ":6195,"Ġë°ĶëŀįëĭĪëĭ¤":6196,"ìĤ¬ì§Ħ":6197,"ospital":6198,"ì¿ł":6199,"Ġnames":6200,"Ġì£Ħ":6201,"Ġnone":6202,"Ġë¥ł":6203,"íĨ¡":6204,"Ġê³§":6205,"Ġord":6206,"Ġoperation":6207,"Ġì¤ĳê°Ħ":6208,"ĠìĦ±ë¶Ħ":6209,"Ġtakes":6210,"Ġlinear":6211,"ë¡¯":6212,"Ġëĭ¤ìĿ´ìĸ´":6213,"Ġì¹ĺì¦Ī":6214,"Ġsigma":6215,"IM":6216,"ees":6217,"Ġë³¶":6218,"ĠNow":6219,"ìķŀ":6220,"ĠJune":6221,"psilon":6222,"ĠFrom":6223,"Ġì»´":6224,"Ġsplit":6225,"ĠìĿ¸íĦ°ëĦ·":6226,"ĠFurther":6227,"OM":6228,"Ġmeasured":6229,"Ġì½ľ":6230,"Ġratio":6231,"Ġbed":6232,"Ġparts":6233,"Ġcand":6234,"Ġwhose":6235,"ĠíĿ¡":6236,"Ġusep":6237,"iency":6238,"Ġusepackage":6239,"../":6240,"Ġìŀĺëª»":6241,"vey":6242,"Ġpublished":6243,"Ġlocated":6244,"ĠëĮĢíļĮ":6245,"Ġargs":6246,"ĠCounty":6247,"Ġcompanies":6248,"Ġê·¸ë§Į":6249,"ë¦ĩ":6250,"ĠæĹ":6251,"eless":6252,"Ġchannel":6253,"hy":6254,"Ġwrong":6255,"íħĮë¦¬ìĸ´":6256,"Ġdepend":6257,"Ġplaintiff":6258,"Ġproduced":6259,"room":6260,"Ġsuff":6261,"ëŀ«":6262,"ĠLa":6263,"Ġë¯¸ëŀĺ":6264,"lease":6265,"Ġhighly":6266,"ĠAustr":6267,"ections":6268,"eline":6269,"Ġactivities":6270,"Ġlarger":6271,"ìķĦê°Ģ":6272,"ĠEnglish":6273,"Ġinfo":6274,"Ġenjoy":6275,"Ġê²Ģìĥī":6276,"Col":6277,"Ġchoice":6278,"Ġê²½ìŁģ":6279,"Ġë¶Ģëĵľ":6280,"Ġmg":6281,"Ġgamma":6282,"ming":6283,"pite":6284,"ram":6285,"Ġthems":6286,"Ġuses":6287,"ĠìĹŃìĤ¬":6288,"Ġallows":6289,"izes":6290,"Ð°Ð":6291,"Ġê·¼ì²ĺ":6292,"Ġestablished":6293,"ĠìĦ¸íĬ¸":6294,"Ġisn":6295,"ĠìĹħë¬´":6296,"ëĭ¤ìĿĮ":6297,"Ġì£¼ìĿ¸":6298,"Ġpreviously":6299,"rist":6300,"Ġmid":6301,"ì£Ħ":6302,"Ġoffice":6303,"ĠíĿĺ":6304,"ĠSince":6305,"Ġë´ħëĭĪëĭ¤":6306,"Ġthemselves":6307,"Ġdimension":6308,"Ġnumbers":6309,"ENT":6310,"ĠëĿ¼ìĿ´":6311,"Ġsites":6312,"Ġì±ħìŀĦ":6313,"Ġacqu":6314,"ìĦ¯":6315,"Ġroad":6316,"ì´Į":6317,"ĠìĤ¬íķŃ":6318,"Ġë°©íĸ¥":6319,"Ġcorresponding":6320,"Ġleave":6321,"ĠStud":6322,"Ġëĭ¬ëĿ¼":6323,"Ġplatform":6324,"Ġremove":6325,"âĢ¢":6326,"ĠíĻķëĮĢ":6327,"ociety":6328,"Ġë§ĪìĿĦ":6329,"IV":6330,"®¤":6331,"ìĭľê°Ħ":6332,"Ġtrain":6333,"Ġê±´ì§Ģ":6334,"uper":6335,"So":6336,"Ġmother":6337,"Ġbur":6338,"Ġëķħ":6339,"Ġvariable":6340,"iles":6341,"Error":6342,"Ġlost":6343,"Ġresources":6344,"ĠPHONE":6345,"with":6346,"Ġ^{\\":6347,"urb":6348,"tail":6349,"ĠTHE":6350,"íĤ¬":6351,"Ġattention":6352,"Data":6353,"Ġdatab":6354,"Ġmis":6355,"itary":6356,"ë²¤íĬ¸":6357,"omb":6358,"udge":6359,"Ġfixed":6360,"Ġaim":6361,"lin":6362,"fig":6363,"Ġlegal":6364,"ĠInter":6365,"Ġmanufact":6366,"lim":6367,"ê¼¼":6368,"aily":6369,"Ġ---":6370,"ube":6371,"Ġnumer":6372,"Ġì±Ļê²¨":6373,"ìłł":6374,"ĠíħĲëį°":6375,"Val":6376,"Ġsave":6377,"ĠìĤ¬ìĿ´ì¦Ī":6378,"Ġëĺĳ":6379,"Ġëĭ¹ìĹ°":6380,"Ġê²©":6381,"Ġvs":6382,"Ġago":6383,"ĠGet":6384,"Ġseg":6385,"Ġestablish":6386,"ë¡Ń":6387,"Ġ'.":6388,"ë¥ł":6389,"ìĹ½":6390,"ellow":6391,"ëĨĵ":6392,"Ġheat":6393,"Ġscript":6394,"Ġindividuals":6395,"ìĤ¬ìĭ¤":6396,"íŀĮ":6397,"entially":6398,"Ġeth":6399,"rote":6400,"Ġìļ°ìĦł":6401,"ĠìĺĪìģľ":6402,"Ġremo":6403,"ĠíĶĦë¦¬":6404,"ìķĦì§Ģ":6405,"ĠëĮĢêµ¬":6406,"Ġcoming":6407,"Ġìľ¼ëł¤":6408,"ĠAbstract":6409,"ĠìľĦíĹĺ":6410,"bert":6411,"rought":6412,"Ġwoman":6413,"ĠëĮĢìĭł":6414,"ĠëĶ°ëľ»":6415,"haps":6416,"ĠíķłìĿ¸":6417,"tas":6418,"ounts":6419,"Ġê·¸ëķĮ":6420,"ĠíĽĪ":6421,"Ġë³¸ìĿ¸":6422,"Ġìļ´ìłĦ":6423,"Ġcompe":6424,"Ġìľ¼ëĭĪê¹Į":6425,"Ġlooked":6426,"Ġëĭ¤ë¦¬":6427,"Ġvariables":6428,"zed":6429,"ĠJuly":6430,"ĠëĴ·":6431,"tember":6432,"ĠìĿĺë£Į":6433,"AB":6434,"Ġrequires":6435,"Ġì»¬ëŁ¬":6436,"Ġvolume":6437,"inated":6438,"oring":6439,"Ġíĺ¸íħĶ":6440,"Ġinsp":6441,"Ġjson":6442,"Ġdoor":6443,"Ġcontinue":6444,"acts":6445,"Ġgave":6446,"ĠJapan":6447,"Ġdict":6448,"Ġelectro":6449,"toms":6450,"ĠìĬ¤ìĬ¤ë¡ľ":6451,"Ġìŀ¬ë£Į":6452,"ĠìļĶêµ¬":6453,"erate":6454,"Ġì²¨":6455,"ĠTrans":6456,"Ġson":6457,"Ġcomputer":6458,"ĠAlthough":6459,"ĠíĨµì¦Ŀ":6460,"Ġwriting":6461,"Ġinn":6462,"Supp":6463,"Ġpolice":6464,"ĠìĭĿëĭ¹":6465,"erson":6466,"With":6467,"riter":6468,"ios":6469,"Ġswitch":6470,"Ġdir":6471,"ëĭ¤ë¥¸":6472,"_{":6473,"Ġbank":6474,"Ġsend":6475,"Ġfinancial":6476,"ctober":6477,"ĠìĿ´ê±´":6478,"Ġearl":6479,"ĠìķĦë§Ī":6480,"Ġtreated":6481,"íİ´":6482,"Ġìľ¼ìĭł":6483,"ĠìĹĺ":6484,"ë°Į":6485,"ĠAmerica":6486,"Ġë¶ģíķľ":6487,"ĠíĬĢ":6488,"ĠDav":6489,"Ġì¤ĳìķĻ":6490,"Ġtried":6491,"ĠìķĦìī¬":6492,"Ġê°Ģêµ¬":6493,"ë¦°ëĭ¤":6494,"Ġphen":6495,"Ġëĭ¬ë¦¬":6496,"Ġapplications":6497,"Ġ$-":6498,"vention":6499,"wor":6500,"ìł¸ìĦľ":6501,"Ġtown":6502,"Ġadap":6503,"ĠìĦŃ":6504,"ĠHer":6505,"Ġì§ĪíĻĺ":6506,"Ġëĭ¨ì²´":6507,"ĵ¨":6508,"ë°Ķë¡ľ":6509,"Ġconnection":6510,"ivil":6511,"ĠíĽ¨":6512,"ĠHigh":6513,"Ġleading":6514,"ëłī":6515,"ë£¹":6516,"Ġalleg":6517,"Ġinvention":6518,"Ġìľ¼ëŁ¬":6519,"Ã¶":6520,"Ġíķ´ìĻ¸":6521,"Ġsuit":6522,"ĠMon":6523,"Ġreading":6524,"ëģĦ":6525,"Ġê¹¨ëģĹ":6526,"Ġbuy":6527,"Ġmaximum":6528,"mber":6529,"osure":6530,"Ġcontaining":6531,"Ġfields":6532,"ĠëĦĺìĸ´":6533,"Ġknew":6534,"Ġê·¸ëħĢ":6535,"Ġê¸°ìĤ¬":6536,"Ġmathrm":6537,"ĠÎ±":6538,"ì¤Ħ":6539,"Ġbasic":6540,"Ġsong":6541,"Ġpul":6542,"ĠìĮĵ":6543,"Ġarri":6544,"Ġjs":6545,"Ġanyone":6546,"Ġhear":6547,"anger":6548,"Ġì°Į":6549,"OL":6550,"Ġbib":6551,"tices":6552,"Ġì²Ļ":6553,"osing":6554,"ĠëĥĦìĥĪ":6555,"oe":6556,"ìĿ´ë²Ħ":6557,"la":6558,"Ġíĸĩ":6559,"Ġopin":6560,"ì´ī":6561,"Ġreduce":6562,"ĠApril":6563,"ìĸ´ëĤľ":6564,"Ġcontains":6565,"Ġinform":6566,"??":6567,"Ġcurrently":6568,"ëĢ":6569,"Ġcomment":6570,"Ġpopular":6571,"ìĪĺë¡Ŀ":6572,"ĠWest":6573,"Ġqual":6574,"Ġpoor":6575,"ê°Ģì§Ģ":6576,"Ġì§ĢëıĦ":6577,"ibrary":6578,"Ġfat":6579,"ancy":6580,"Ġê³łëł¤":6581,"ĠíĮĲëĭ¨":6582,"olds":6583,"Ġinduced":6584,"Ġconver":6585,"Ġë³´íĨµ":6586,"Ġball":6587,"ĠìĿ´ìłĦ":6588,"ĠìłĦêµŃ":6589,"overy":6590,"isms":6591,"Ġsituation":6592,"Ġíĺľ":6593,"ĠìĿ´ë²¤íĬ¸":6594,"urance":6595,"titute":6596,"ev":6597,"ography":6598,"Ġhands":6599,"Ġì²´íĹĺ":6600,"Ġeasily":6601,"Ġpen":6602,"ĠìĻ¸êµŃ":6603,"ĠìĦ¬":6604,"ĠJanuary":6605,"Ġhat":6606,"Ġeconomic":6607,"ito":6608,"Ġcentral":6609,"ĠìľĦìĽĲíļĮ":6610,"Ġfather":6611,"Ġstream":6612,"ulate":6613,"Ġìĺ¤ë¥¸":6614,"Ġinternal":6615,"ado":6616,"ĠDNA":6617,"ĠíļĮìĿĺ":6618,"Ġparameter":6619,"Ġìŀ¥ìĨĮ":6620,"Ġdomain":6621,"Ġtree":6622,"Ġconvers":6623,"ĠíĿ¥":6624,"rief":6625,"aling":6626,"Ġtransition":6627,"Ġml":6628,"ä¸":6629,"netic":6630,"Ġboard":6631,"Ġcas":6632,"Ġhit":6633,"Ġë°Ķëĭ¤":6634,"uty":6635,"ĠåĽ":6636,"ĠAugust":6637,"add":6638,"Ġì§§":6639,"ager":6640,"Ġdelta":6641,"ãģª":6642,"ĠAD":6643,"No":6644,"Ġë²Īíĺ¸":6645,"Ġuseful":6646,"¢°":6647,"Ġmodule":6648,"Ġadvant":6649,"Ġwonder":6650,"ĠëĤĺëĪ":6651,"Ġturned":6652,"ë¤":6653,"Ġstatement":6654,"ìķķ":6655,"Ġeq":6656,"Ġë§ŀì¶°":6657,"eness":6658,"Ġprogress":6659,"Ġê³µìĤ¬":6660,"ì¹Ń":6661,"ext":6662,"Ġprocesses":6663,"íļ¨":6664,"ìłĢíĿ¬":6665,"equ":6666,"Ġê¸Īìķ¡":6667,"TH":6668,"Ġfelt":6669,"Ġê³µëıĻ":6670,"Ġrecently":6671,"Ġprint":6672,"Ġê³¡":6673,"ìĿ´ëŁ°":6674,"ĠìĺĪë°©":6675,"Ġstim":6676,"Ġextra":6677,"ĠChina":6678,"Ġìĺ¤ëŀľë§Į":6679,"ĠMich":6680,"ĠSchool":6681,"Ġenter":6682,"Ġ^{-":6683,"ocal":6684,"ìĭ±":6685,"Ġchalleng":6686,"change":6687,"Ġdie":6688,"ĠìĤ´íİ´":6689,"Ġclaims":6690,"culate":6691,"Ġconclud":6692,"ĠìĺģìĹħ":6693,"Ġtravel":6694,"US":6695,"íķĻêµĲ":6696,"íĬ¹íŀĪ":6697,"ì´Ŀ":6698,"Ġcluster":6699,"ë¹Ľ":6700,"Ġallowed":6701,"Ġemerg":6702,"itude":6703,"Ġê¼¼":6704,"ĠSeptember":6705,"Ġê³µìĽĲ":6706,"Ġê°ķì¡°":6707,"ferences":6708,"ovember":6709,"Ġsolid":6710,"Ġscore":6711,"iff":6712,"Ġsort":6713,"Ġë²½":6714,"Ġìĸ´ìłľ":6715,"ĠAfric":6716,"Ġgives":6717,"Ġplant":6718,"Ġreleased":6719,"ĠíļĮìŀ¥":6720,"reme":6721,"tring":6722,"Ġê±°ê¸°":6723,"ĠìĿ¸íħĮë¦¬ìĸ´":6724,"Ġhon":6725,"Ġgreen":6726,"ĠíļĮë³µ":6727,"right":6728,"att":6729,"Ġneigh":6730,"View":6731,"Ġdiss":6732,"ĠìĤ¬ë¬´":6733,"ìĸ´ìļĶ":6734,"oon":6735,"estern":6736,"ìī½":6737,"ĠìĿĮìķħ":6738,"Ġannoun":6739,"Ġhyper":6740,"Ġobjects":6741,"Ġì¥¬":6742,"Ġíķ¸":6743,"ì§Ħëĭ¤":6744,"tified":6745,"Ġassert":6746,"ì¸µ":6747,"Ġimpl":6748,"Ġcosts":6749,"Ġë¬»":6750,"Ġones":6751,"Ġalone":6752,"bl":6753,"ocy":6754,"Ġplayer":6755,"Ġborn":6756,"IR":6757,"inate":6758,"CH":6759,"Ġquery":6760,"Ġcritical":6761,"Ġmd":6762,"ëĤ¸":6763,"Ġgenerated":6764,"ĠOctober":6765,"ĠIS":6766,"ĠYour":6767,"ournal":6768,"acing":6769,"ìĺ¥":6770,"Ġinit":6771,"rest":6772,"Ġfigure":6773,"ĠAP":6774,"Ġreceive":6775,"ky":6776,"ĠëģĬ":6777,"Ġconstr":6778,"Ġê³µê²©":6779,"Ġtouch":6780,"Ġfib":6781,"Ġë¡ľìĦľ":6782,"ĠìĿ¸ì²ľ":6783,"ĠìŀĲë£Į":6784,"Ġtele":6785,"Ġculture":6786,"ĠSystem":6787,"Ġë°ĶëĢ":6788,"íŀĪëł¤":6789,"ãģ¨":6790,"Ġcentury":6791,"Ġoverall":6792,"Ġcaused":6793,"ìļ°ìĬ¤":6794,"ĠáĦ":6795,"aign":6796,"Ġê³µê¸ī":6797,"});":6798,"ë¢°":6799,"Ġëĵ¯ìĿ´":6800,"Ġëª©ìłģ":6801,"Ġcharge":6802,"ĠDis":6803,"adem":6804,"iding":6805,"Ġáħ®":6806,"ĠíħĮìĿ´ë¸Ķ":6807,"Ġtowards":6808,"Ġactual":6809,"ĠêµĲíĨµ":6810,"Ġmeaning":6811,"ĠSun":6812,"ste":6813,"Ġdele":6814,"Ġìŀ¬ë°Į":6815,"íĬľ":6816,"Ġtests":6817,"Ġjudgment":6818,"Ġbrain":6819,"ĠMark":6820,"Ġrelevant":6821,"Ġê¹Ģì¹ĺ":6822,"Ġê³Ħìĭľ":6823,"ought":6824,"ĠAS":6825,"ĠìĬ¤ë§ĪíĬ¸":6826,"Ġrules":6827,"Ġblue":6828,"Ġì¡°ê±´":6829,"Ġì§ķ":6830,"Ġclim":6831,"Ġalgorithm":6832,"Ġsufficient":6833,"tely":6834,"Ġunderstanding":6835,"ìĦ¼":6836,"Ġgoal":6837,"Ġfair":6838,"Ġborder":6839,"Ġ}{\\":6840,"ĠìĤ¬ëĿ¼":6841,"ashing":6842,"ĠìłľëıĦ":6843,"dom":6844,"ĠSub":6845,"ĠìķĦíĶĦ":6846,"================":6847,"ĠMS":6848,"ĠIT":6849,"Ġëĵ±ë¡Ŀ":6850,"Ġëĭ¤íĸī":6851,"Ġtas":6852,"ille":6853,"Ġê´Ģê´ĳ":6854,"Ġìľ¼ëĤĺ":6855,"Ġdro":6856,"ìłĦíŀĪ":6857,"Ġappropriate":6858,"Ġëĵľëł¸":6859,"oma":6860,"Ġæĺ":6861,"ĠíĿĳ":6862,"co":6863,"Ġëĭ¤ìĿ´ìĸ´íĬ¸":6864,"MS":6865,"gn":6866,"Ġwave":6867,"ĠëķĲ":6868,"Ġpsych":6869,"Ġparent":6870,"ĠOf":6871,"Ġprocessing":6872,"ĠëıĻìĭľ":6873,"Ġcoord":6874,"Ġdescription":6875,"íĺĪ":6876,"Ġíģ¬ê¸°":6877,"ìĬ¤íĦ°":6878,"Ġeveryone":6879,"Ġcool":6880,"Ġë¬´ë£Į":6881,"Ġhighest":6882,"ĠëĶ°ëĿ¼ìĦľ":6883,"Ġplease":6884,"Ġê¾¸ì¤Ģ":6885,"ëĶ±":6886,"ĠìĿ´ìģĺ":6887,"ĠíĺĦìĭ¤":6888,"rench":6889,"ĠíĮ©":6890,"íħĲ":6891,"Ġë²Ħëł¸":6892,"ĠìĿ¸ìĥģ":6893,"ott":6894,"uge":6895,"ani":6896,"king":6897,"istrict":6898,"íĿ¥":6899,"ĠÃĳ":6900,"ãĥ¼ãĥ":6901,"ecting":6902,"ĠëĤĻ":6903,"ìĤŃ":6904,"bum":6905,"Ġinfluence":6906,"Ġíĺ¹ìĭľ":6907,"Ġìĭľë¯¼":6908,"ĠíĢ":6909,"Ġremember":6910,"Ġrap":6911,"ë°Ľ":6912,"ĠíĽ¨ìĶ¬":6913,"Ġlas":6914,"ares":6915,"Ġì¤įëĭĪëĭ¤":6916,"ĠëĲľëĭ¤ê³ł":6917,"ĠRE":6918,"ĠìŃ":6919,"ĠTrump":6920,"Ġroll":6921,"Ġìĭľì¼°":6922,"Ġdemand":6923,"ĠHouse":6924,"Ġimm":6925,"light":6926,"Ġisol":6927,"ĠSuppose":6928,"Ġmachine":6929,"ĠëĤ´ìĿ¼":6930,"Ġserious":6931,"Ġworked":6932,"Ġìĺ¬ëĿ¼ê°Ģ":6933,"Ġë¦¬ê·¸":6934,"idth":6935,"Ġil":6936,"const":6937,"Ġrob":6938,"All":6939,"Ġabsol":6940,"Ġìĺ¤íĶĪ":6941,"Ġsteps":6942,"Ġê±·":6943,"Ġëł¤ëĬĶ":6944,"unt":6945,"Ġdead":6946,"Ġchanged":6947,"ĠêµŃíļĮ":6948,"ĠDecember":6949,"Ġíĥĳ":6950,"ì§ĢëĤľ":6951,"abled":6952,"íĳ¸":6953,"Ġê°Ĳìłķ":6954,"Ġformed":6955,"Ġsymp":6956,"pts":6957,"Ġcounter":6958,"ĠPre":6959,"Ġjus":6960,"âĻ":6961,"Ġthroughout":6962,"Ġadop":6963,"lde":6964,"Ġsetting":6965,"ĠCH":6966,"Ġexisting":6967,"Ġë¡Ń":6968,"Ġplayed":6969,"ìŀĺ":6970,"Ġcompletely":6971,"ĠNovember":6972,"Ġhope":6973,"ë³¶":6974,"Ġdefinition":6975,"Ġdrive":6976,"des":6977,"ĠAT":6978,"ĠKing":6979,"ĠAustral":6980,"Ġtheta":6981,"tically":6982,"Ġfine":6983,"position":6984,"Ġnu":6985,"Ġlaunch":6986,"Ġskin":6987,"Ġphone":6988,"ĠëĥĲê³ł":6989,"ĠRed":6990,"Ġchoose":6991,"urrent":6992,"den":6993,"Ġmedium":6994,"ê·¸ëĥ¥":6995,"Ġê·¸ëŀ¬":6996,"Ġconnected":6997,"otes":6998,"Ġzero":6999,"ë´Ĳ":7000,"ĠìŀĬ":7001,"Ġìŀ¥ìķł":7002,"Ġfailure":7003,"Ġstaff":7004,"Ġagreement":7005,"Ġbirth":7006,"Ġpretty":7007,"Ġíķľëĭ¤ë©´":7008,"Ġë·°":7009,"Ġmiddle":7010,"Ġdeliver":7011,"fort":7012,"ĠAdd":7013,"Ġdivided":7014,"Ġë³´ìĿ¸ëĭ¤":7015,"Ġselection":7016,"Ġthreat":7017,"iring":7018,"apter":7019,"cil":7020,"Ġstorage":7021,"ĠHol":7022,"otor":7023,"Ã¼":7024,"ĠíıīìĨĮ":7025,"ĠInst":7026,"íķĺëĤĺ":7027,"Ġdouble":7028,"auti":7029,"Ġprofessional":7030,"Ġconcentration":7031,"ĠDem":7032,"Ġê³łê¸ī":7033,"assert":7034,"Ġachieve":7035,"Ġìĭłê¸°":7036,"iques":7037,"Ġì¤ĳê³ł":7038,"Ġë¶Ħëªħ":7039,"Ġdownload":7040,"Ġworth":7041,"ĠëĬĶê°Ģ":7042,"^{":7043,"Ġë§Īë¦¬":7044,"Ġexerc":7045,"Ġë¥ĺ":7046,"Ġmov":7047,"Ġfindings":7048,"ĠPM":7049,"Ġstation":7050,"OC":7051,"Ġìĩ¼íķĳ":7052,"Ġ\");":7053,"ĠëĤ´ë¦¬":7054,"Ġsmaller":7055,"Ġyield":7056,"Ġlinks":7057,"oding":7058,"íĺĳ":7059,"Ġedge":7060,"Ġbrought":7061,"Ġsched":7062,"Ġå°":7063,"ĠìłĦìŀĲ":7064,"Ġwasn":7065,"Ġtools":7066,"Ġflex":7067,"ester":7068,"ipe":7069,"ëŀĺëıĦ":7070,"Ġì¹ľìłĪ":7071,"ë¡±":7072,"illing":7073,"Ġearlier":7074,"Ġíĺķíĥľ":7075,"ĠëıĻë¬¼":7076,"lick":7077,"cast":7078,"Ġê°ĢìĬ´":7079,"tab":7080,"Ġê·¸ë£¹":7081,"Ġìĸ´ë¦°ìĿ´":7082,"ĠìĥĢ":7083,"ì£¼ìĿĺ":7084,"Ġintr":7085,"iers":7086,"Ġì£¼ë¯¼":7087,"Ġfully":7088,"Ġnovel":7089,"ëĳ¥":7090,"Ġreduc":7091,"ii":7092,"Ġfinding":7093,"ugg":7094,"ament":7095,"ê¹Ķ":7096,"Ġfailed":7097,"eta":7098,"IP":7099,"Ġëĭ¤ë©°":7100,"Ġsources":7101,"Ġsold":7102,"ì»¨":7103,"ĠìĿĺìĤ¬":7104,"Ġtesting":7105,"Ġdrop":7106,"ĠìŀĲê²©":7107,"oted":7108,"Ġì£¼ìłľ":7109,"Ġê°Ģì§Ħ":7110,"ĠìłĦë¬¸ê°Ģ":7111,"nes":7112,"alle":7113,"ìĭŃ":7114,"Ġbrow":7115,"ĠëĤĺì¤ĳ":7116,"Ġheard":7117,"UL":7118,"board":7119,"Ġìķ¤":7120,"ĠìĿĺê²¬":7121,"Ġíĺģ":7122,"ëļ":7123,"eth":7124,"works":7125,"Ġforms":7126,"Ġprincip":7127,"Ġproceed":7128,"tau":7129,"ept":7130,"Ġsche":7131,"undred":7132,"ĠPresident":7133,"Ġmodern":7134,"Ġê°ģê°ģ":7135,"sel":7136,"ĠíķĦìĪĺ":7137,"Ġ\"\"":7138,"Ġ\"}).":7139,"Ġë¶Ģë¥´":7140,"Ġíİ¼":7141,"Ġsolutions":7142,"Ġinternational":7143,"Ġles":7144,"ëĭµëĭĪëĭ¤":7145,"Ġcandid":7146,"ëłĢ":7147,"ĠåŃ":7148,"===":7149,"Ġsafe":7150,"ĠêµĲì²´":7151,"zz":7152,"Ġdog":7153,"ĠìĪĺìĿµ":7154,"Ġì²´íģ¬":7155,"Ġproduce":7156,"Ġìŀ¥ê´Ģ":7157,"Ġë²łìĿ´":7158,"Ġexists":7159,"Ġrou":7160,"oti":7161,"rol":7162,"ì¨":7163,"ĠìłĪëĮĢ":7164,"Ġsup":7165,"Ġê±´ëį°":7166,"Ġìľłë¦¬":7167,"Ġìĺ¥":7168,"Ġìĥ·":7169,"Ġreasons":7170,"UR":7171,"ìŀł":7172,"Ġdb":7173,"Ġready":7174,"íĩ´":7175,"Ġsupported":7176,"itter":7177,"Ġìļ":7178,"ìļ´ëĵľ":7179,"Ġtransport":7180,"unk":7181,"ham":7182,"enty":7183,"Ġì§±":7184,"ëĶĶìĺ¤":7185,"ĠìĬ¤íĬ¸ëłĪìĬ¤":7186,"Ġfight":7187,"arr":7188,"ĠâĻ¥":7189,"Ġê³µê¸°":7190,"ĠMus":7191,"Ġtau":7192,"Ġvirt":7193,"ĠSection":7194,"ibly":7195,"Ġbey":7196,"ware":7197,"ĠCir":7198,">>":7199,"Pl":7200,"Ġconcept":7201,"Ġliqu":7202,"Ġìł¤":7203,"ĠìĺĪìłĦ":7204,"Ġëĵ¤ìĸ´ìĺ¤":7205,"Cont":7206,"Ġnamed":7207,"Ġcarry":7208,"Ġsometimes":7209,"ê°ĢëĿ½":7210,"Ġactions":7211,"Ġì¹ĺíĤ¨":7212,"Ġsrc":7213,"Ġ**(":7214,"ĠìĦłìłķ":7215,"ìľ¤":7216,"Ġbeyond":7217,"tian":7218,"Ġspectr":7219,"Ġtor":7220,"ĠDon":7221,"Ġquickly":7222,"Ġgenes":7223,"ĠTex":7224,"ĠìłĲìłĲ":7225,"ĠDistrict":7226,"Ġimg":7227,"Ġê²ª":7228,"OP":7229,"Ġvariety":7230,"ayer":7231,"Ġconstruction":7232,"Ġë§¥ì£¼":7233,"elle":7234,"Ġvisual":7235,"bre":7236,"ëĭ¤ìĭľ":7237,"ĠUp":7238,"Ġuns":7239,"Ġåį":7240,"Ġêµ³":7241,"Ġattach":7242,"Ġìłģê·¹":7243,"íĤ¹":7244,"Ġì£¼ìļĶ":7245,"Im":7246,"Ġslight":7247,"Ġëĭ¨ì§Ģ":7248,"Ġvehicle":7249,"ĠAng":7250,"ran":7251,"ĠAccording":7252,"êµŃìĪĺ":7253,"ĠìĨĮìĭĿ":7254,"UT":7255,"ĠDepartment":7256,"Ġê³µìĹ°":7257,"ĠSpec":7258,"Ġìĸ´ëł¤ìļ´":7259,"ĠIP":7260,"Ġê²¸":7261,"Ġìĵ´":7262,"Ġë¡ľë¶ĢíĦ°":7263,"ĠìĥĿê²¼":7264,"Ġthick":7265,"olic":7266,"Ġdamage":7267,"....":7268,"Ġinterview":7269,"ĠæĪ":7270,"ML":7271,"Ġseven":7272,"ì¾Į":7273,"Ġdatas":7274,"pling":7275,"Ġlives":7276,"aur":7277,"Ġ*,":7278,"ij":7279,"Ġvector":7280,"ries":7281,"ëıĻìĤ°":7282,"Ġleaders":7283,"Ġë½ĳ":7284,"ĠìłĦìĭľ":7285,"Ġmoved":7286,"ĠìķĦë¦Ħëĭ¤":7287,"Ġsleep":7288,"ĠPD":7289,"ĠSan":7290,"ì½ľ":7291,"exp":7292,"Ġpackage":7293,"istry":7294,"ĠìķĦëĭĲ":7295,"ìĨĶ":7296,"Ġcampaign":7297,"ĠìłĦê¸°":7298,"ìľ¼ëĤĺ":7299,"íıŃ":7300,"Ġìŀĥ":7301,"Ġcontrast":7302,"Ġsou":7303,"Ġcapital":7304,"pective":7305,"Ġìŀ¥ìłĲ":7306,"Ðº":7307,"ĠëĵľëĿ¼":7308,"Ġprin":7309,"Ġhop":7310,"Ġunits":7311,"Ġì§Ģì¼ľ":7312,"Ġì§ĵ":7313,"ĠëĤĺíĥĢëĤĺ":7314,"Ġproviding":7315,"ĠSD":7316,"Ġì¡°ì§ģ":7317,"ë¤Ħ":7318,"ĠìĹĲëĦĪì§Ģ":7319,"íĦ¸":7320,"Ġcapacity":7321,"Ġë¹Ħíķ´":7322,"êµ°ìļĶ":7323,"Ġresulting":7324,"Ġbul":7325,"ondon":7326,"NS":7327,"Ġrelig":7328,"Ġcircum":7329,"Ġexhib":7330,"Ġbenefits":7331,"ĠìĤ¬ìļ©ìŀĲ":7332,"Ġ-\\":7333,"Ġrelatively":7334,"Ġëł¤ë©´":7335,"Ġ++":7336,"Ġdiscover":7337,"Ġign":7338,"ëĭĲ":7339,"Ġtoward":7340,"Ġíı´":7341,"oses":7342,"Ġìĺ¤íŀĪëł¤":7343,"Ġìĺģìĸĳ":7344,"ĠGeor":7345,"osite":7346,"Ġìŀ¥ê¸°":7347,"ato":7348,"Ġë§¤ëł¥":7349,"ĠBu":7350,"Ġrho":7351,"Ġcrim":7352,"Ġsaying":7353,"Ġscen":7354,"Ġdatabase":7355,"Ġê²ģëĭĪëĭ¤":7356,"enge":7357,"Ġincor":7358,"Ġmaster":7359,"ĠìĪĺìĤ¬":7360,"Ġcareer":7361,"lusion":7362,"rier":7363,"uting":7364,"Ġì£¼ìĿ¼":7365,"Ġtherm":7366,"Ġcharacteristics":7367,"ĠìĿ´ë¯¸ì§Ģ":7368,"Ġê²½ìĺģ":7369,"ĠíĺĲ":7370,"Ġclearly":7371,"Ġhistor":7372,"Ġëŀĺ":7373,"Ġìĺ¨ëĿ¼ìĿ¸":7374,"ĠíĹ¤ìĸ´":7375,"atically":7376,"bruary":7377,"ĠAL":7378,"Ġexperiments":7379,"ĠBecause":7380,"Ġdoub":7381,"Ġdefine":7382,"Ġ\";":7383,"Ġimag":7384,"ìĹĺ":7385,"Ġsun":7386,"Ġpeak":7387,"Ġíķłì§Ģ":7388,"Ġfunctional":7389,"Ġê¼¼ê¼¼":7390,"Ġappears":7391,"Ġcommunication":7392,"Ġë²¤":7393,"Ġì¦Ĳê¸°":7394,"Ġparents":7395,"Ġíķľë²Ī":7396,"iforn":7397,"ĠíĥĲ":7398,"ĠMor":7399,"Ġ===":7400,"ĠLG":7401,"ë¿":7402,"Ġë¬¸ìĿĺ":7403,"íĻį":7404,"df":7405,"ãģ¯":7406,"Ġfederal":7407,"ĠëĶ°ë¥¸":7408,"ocks":7409,"Ġtransl":7410,"Ġë¸ĶëŀĻ":7411,"Ġleq":7412,"ĠOh":7413,"Ġprofile":7414,"RNA":7415,"Ġregister":7416,"Ġclosed":7417,"Ġì§Ģíķĺ":7418,"ĠìĦłê±°":7419,"Ġreduction":7420,"off":7421,"ha":7422,"Ġparties":7423,"Ġdigital":7424,"ĠDet":7425,"Ġelection":7426,"Ġìŀĳê°Ģ":7427,"}}":7428,"Ġëĵ±ëĵ±":7429,"ĠPark":7430,"Ġìĥµ":7431,"ĠìĹĲìĦł":7432,"Ġmoun":7433,"ĠìĹ¬ìľł":7434,"ĠëıĻìĥĿ":7435,"Ġsubsequ":7436,"Ġsurpr":7437,"Ġformation":7438,"Ġemb":7439,"ĠHealth":7440,"Ġstrategy":7441,"Ġinteresting":7442,"Ġlic":7443,"Ġspir":7444,"ĠOver":7445,"ĠâĢ¢":7446,"active":7447,"ìĬĪ":7448,"Ġupper":7449,"itiz":7450,"Ġcapt":7451,"ÂŃ":7452,"ìĽ¨":7453,"App":7454,"Ġarm":7455,"ford":7456,"Ġìĭ¤ìĭľ":7457,"Ġreaction":7458,"Ġhundred":7459,"ĠìłĦëŀµ":7460,"Ġregions":7461,"public":7462,"Suppose":7463,"ĠìĦ¸ëĮĢ":7464,"Ġsubstanti":7465,"Ġëģĵ":7466,"Ġclasses":7467,"Ġmoving":7468,"Ġwrote":7469,"Ġstarting":7470,"Ġplaced":7471,"Ad":7472,"Ġëı¼ì§Ģ":7473,"iance":7474,"Ġtab":7475,"Ġregarding":7476,"Ġdecided":7477,"Ġíİ¸ìķĪ":7478,"Ġinteraction":7479,"Ġemo":7480,"Ġfish":7481,"ĠëĮĢíĻĶ":7482,"ien":7483,"RA":7484,"ĠëĨĴìĿ´":7485,"ĠìŀĸìķĦìļĶ":7486,"Ġremains":7487,"iday":7488,"Ġëħ¸ëıĻ":7489,"ĠìķĪëĤ´":7490,"ëĿ¼ìĬ¤":7491,"Ġcarried":7492,"Ġsafety":7493,"ì¶ĺ":7494,"Ñı":7495,"ĠìŀĲê¾¸":7496,"Ġmovement":7497,"ĠÎ²":7498,"Ġê¸°ëħĲ":7499,"Ġderivative":7500,"Ġrecommend":7501,"Ġcalculated":7502,"ĠìĬ¤íĨł":7503,"ëĤĻ":7504,"Ġexperiment":7505,"Ġaware":7506,"Ġëįķë¶Ħ":7507,"Ġdependent":7508,"ĠGeneral":7509,"Ġmorning":7510,"ĠÃ©":7511,"flow":7512,"Ġexpressed":7513,"ĠíĨµìĭł":7514,"MP":7515,"Ġ}}\\":7516,"Ġì§Ģìłģ":7517,"Ġìŀłìĭľ":7518,"ĠëĳĶ":7519,"Ġconsequ":7520,"Ġê°Ģê²Į":7521,"UN":7522,"Ġidentify":7523,"Ġê°Ģìłķ":7524,"ĠëıĦìłĦ":7525,"ellant":7526,"Ġagent":7527,"ara":7528,"Ġalbum":7529,"Ġ~^^":7530,"Ġonto":7531,"Ġ~!!":7532,"Ġê»":7533,"Ġspeak":7534,"Ġê³¼íķĻ":7535,"ĠìĹĲìĸ´":7536,"Ġopportunity":7537,"ĠBro":7538,"overn":7539,"ĠString":7540,"Ġplaying":7541,"inn":7542,"Ġíŀĺëĵł":7543,"ifornia":7544,"ëıĪ":7545,"ĠìĻĦë£Į":7546,"ìĦŃ":7547,"Ġhar":7548,"Ġ}}$":7549,"Ġstated":7550,"Ġdaily":7551,"Ġhous":7552,"ĠíļĮìĽĲ":7553,"ias":7554,"Ġnotice":7555,"Ġìĺ®":7556,"IA":7557,"Ġì£¼ìĭĿ":7558,"ĠëĵľëŁ¬":7559,"oming":7560,"ĠNor":7561,"asion":7562,"ĠìķĪëħķ":7563,"IF":7564,"ĠíĨµíķ´ìĦľ":7565,"ĠChrist":7566,"Ġëĸ¨ìĸ´ì§Ģ":7567,"Ġoffers":7568,"ĠBritish":7569,"Ġexpand":7570,"Ġell":7571,"Ġìĭľíĸī":7572,"Ġparticipants":7573,"Ġattempt":7574,"Ġdiff":7575,"Ġphi":7576,"Ġplas":7577,"Ġë°Ķê¿":7578,"ica":7579,"Ġbooks":7580,"Ġtechniques":7581,"ĠìĿĦê¹ĮìļĶ":7582,"Ġbecomes":7583,"orem":7584,"Ġrank":7585,"Ġseparate":7586,"Ġë¹Ħë¡¯":7587,"Ġdiscl":7588,"Ġlooks":7589,"idden":7590,"Ġeye":7591,"Ġëī´ìĬ¤":7592,"Ġmetal":7593,"Ġbinding":7594,"Ġcombination":7595,"Ġequation":7596,"Ġíĺ¹ìĿĢ":7597,"Ġomega":7598,"Ġharm":7599,"ëĳĺ":7600,"Ġë°Ķëĭ¥":7601,"Ġvoice":7602,"Ġìķ½ìĨį":7603,"Ġmonitor":7604,"Ġsin":7605,"Ġproof":7606,"ĠìħĶìķ¼":7607,"Ġë°ĺëĮĢ":7608,"ĠFl":7609,"Ġë¶Ħìĸĳ":7610,"Ġë²Įìį¨":7611,"Ġsettings":7612,"Ġcustomers":7613,"Ġä¹":7614,"force":7615,"ĠSet":7616,"ĠìĿĮë£Į":7617,"band":7618,"Ġhab":7619,"ĠOff":7620,"ĠEuropean":7621,"Ġexcept":7622,"Ġê·ł":7623,"ĠëĦĪë¬´ëĤĺ":7624,"Ġì¶ľìĭľ":7625,"Ġì¡°ìłķ":7626,"Ġvic":7627,"ively":7628,"Ġthous":7629,"Ġíıīê·ł":7630,"Ġê±¸ë¡ľ":7631,"Ġê°ĲìĨĮ":7632,"utive":7633,"ĠLondon":7634,"irmed":7635,"After":7636,"ëĤĺë¬´":7637,"apping":7638,"ĠëĤ´ëħĦ":7639,"Ġquar":7640,"One":7641,"Ġgoes":7642,"****":7643,"Ġexactly":7644,"ĠIC":7645,"Ġì¶ľë°ľ":7646,"Ġë¶ĢìľĦ":7647,"ressed":7648,"Ġëįĺëį°":7649,"ida":7650,"ĠAlso":7651,"cted":7652,"tens":7653,"Ġrequirements":7654,"ĠBlack":7655,".?":7656,"Ġessential":7657,"ĠTim":7658,"Ġmal":7659,"Ġê±´ìĦ¤":7660,"Ġincreases":7661,"Ġë°Ķë¥´":7662,"{{\\":7663,"ocation":7664,"Ġlabor":7665,"ãĤ¹":7666,"Ġë°ĺìĿĳ":7667,"urg":7668,"Ġdisp":7669,"Ġprem":7670,"Ġstudied":7671,"attle":7672,"Ġì¡°ìłĪ":7673,"Ġprograms":7674,"Ġ;;":7675,"Ġnoted":7676,"Ġíı¬ê¸°":7677,"Ġë§ĪìĬ¤íģ¬":7678,"Ġincome":7679,"function":7680,"Ġmice":7681,"Ġsession":7682,"Ġëª©ìĨĮë¦¬":7683,"Ġprocedure":7684,"Ġíı°":7685,"Ġìĭłê³ł":7686,"Ġvoid":7687,"Ŀ¤":7688,"Ġâī":7689,");":7690,"Ġë±":7691,"Ġ^\\":7692,"Ġimmediately":7693,"ĠëħĢ":7694,"Ġëĵľëł¤":7695,"íİĺìĿ´ì§Ģ":7696,"ĠChar":7697,"vision":7698,"Ġmeeting":7699,"Ġì½©":7700,"ĠFebruary":7701,"ĲëŁ¬":7702,"Ġsets":7703,"Ġë§¤ì¶ľ":7704,"Ġì§ģìŀ¥":7705,"Ġampl":7706,"ë©ĶëĿ¼":7707,"Ġapi":7708,"Ġê¿Ģ":7709,"izer":7710,"icity":7711,"Ġë´ĲëıĦ":7712,"Ġmentioned":7713,"Ġrender":7714,"Ġefficient":7715,"Ġcookies":7716,"Ġtrade":7717,"ĠTest":7718,"Ġmechanism":7719,"ĠHT":7720,"Ġdepth":7721,"Ġ.?":7722,"íıĲ":7723,"Ġtissue":7724,"Ġìħĭ":7725,"orph":7726,"Ġstudent":7727,"Ġplot":7728,"ĠìĭľìĪł":7729,"ĠíķĻìĬµ":7730,"Ġresource":7731,"Ġíĥķ":7732,"ka":7733,"Ġcredit":7734,"ĠMod":7735,"tend":7736,"Ġcouple":7737,"Ġë¶ĪìķĪ":7738,"ĠìĨĮìŀ¬":7739,"Ġentry":7740,"ĠìĿ¸ì¦Ŀ":7741,"Ġtraditional":7742,"Ġconducted":7743,"Ġëª°ëĿ¼":7744,"field":7745,"Ġë°ķìĬ¤":7746,"Ġë¶ĢëıĻìĤ°":7747,"ĠìĹ°ìĬµ":7748,"ĠEven":7749,"Ġì§Ħëĭ¨":7750,"ĠëıĦë¡ľ":7751,"Ġë£¸":7752,"Ġìłģëĭ¹":7753,"Ġmyself":7754,"Ġotherwise":7755,"ë¶Ļ":7756,"iform":7757,"ĠëĤ©":7758,"ĠëĤĺë¦Ħ":7759,"CL":7760,"Ġ+=":7761,"Ġswe":7762,"Ġëĭ¬ëł¤":7763,"Ġcontinued":7764,"ê²Ĳ":7765,"Ġmale":7766,"Ġ__(":7767,"Ġstructures":7768,"Ġreports":7769,"Ġì¢ĭìķĦíķĺ":7770,"Ġmobile":7771,"Ġappeal":7772,"Ġê°ģì¢ħ":7773,"ë§¥":7774,"Ġexperimental":7775,"Ġë¬¼ê±´":7776,"Ġwish":7777,"Ġì¶©ë¶ĦíŀĪ":7778,"ĠëĸłëĤĺ":7779,"ĠëĬĲëĿ¼":7780,"Ġì¡°íķ©":7781,"Ġëĭ¤ëħĢìĻĶ":7782,"ĠCalifornia":7783,"Ġhair":7784,"Ġ={":7785,"Ġmajority":7786,"tered":7787,"Ġprojects":7788,"Ġì¤ĺìķ¼":7789,"Ġthinking":7790,"Ġgiving":7791,"íĶ½":7792,"ĠAssoci":7793,"Ġê³¼ê±°":7794,"ĠìŀĲê·¹":7795,"ails":7796,"ëª°":7797,"Ġpanel":7798,"ê°ĢìļĶ":7799,"Ġmilitary":7800,"Ġnan":7801,"Ġplaces":7802,"ĠìĭĿíĴĪ":7803,"new":7804,"Ġíľĺ":7805,"ĠìĭľìłĪ":7806,"Ġyourself":7807,"ĠSP":7808,"agement":7809,"Ġconsistent":7810,"Ġradio":7811,"Ġê°Ĵ":7812,"Ġì¹ĺìķĦ":7813,"za":7814,"Ġì¹Ń":7815,"Ġauthors":7816,"Par":7817,"ĠìĨįëıĦ":7818,"Ġorganization":7819,"ĠìłĦëĭ¬":7820,"Ġhandle":7821,"Ġresistance":7822,"ĠNet":7823,"ĠRepublic":7824,"ĠCenter":7825,"fs":7826,"ĠìķĦë²Ħì§Ģ":7827,"ãģĹ":7828,"Ġcircuit":7829,"ĠìĿĦì§Ģ":7830,"rep":7831,"ì²ĺìĿĮ":7832,"ĠIndia":7833,"Ob":7834,"Ġillustr":7835,"Ġhospital":7836,"Ġê°ĢìĿĦ":7837,"ĠPhys":7838,"ĠWilliam":7839,"Ġä¸Ģ":7840,"Ġ\"),":7841,"Ġspread":7842,"ĠList":7843,"encing":7844,"airs":7845,"\\\\":7846,"Ġseed":7847,"ĠSE":7848,"Ġë´ĲìļĶ":7849,"ipped":7850,"Ġinfty":7851,"Ġnearly":7852,"ĠìłĦë¶Ģ":7853,"ĠCP":7854,"Ġbeginning":7855,"ë§ŀ":7856,"tex":7857,"Ġíĸīìłķ":7858,"Ġë³´ìŀ¥":7859,"Ġëĵ±ìŀ¥":7860,"ipment":7861,"MA":7862,"ĠìĹ¬ìĦľ":7863,"Ġìĥīìĥģ":7864,"ĠíĶĮëłĪìĿ´":7865,"inger":7866,"ico":7867,"Ġê°ķìĿĺ":7868,"ĠLaw":7869,"Ġstatic":7870,"Ġded":7871,"ĠëĤĺëĪĦ":7872,"Ġcommerc":7873,"ë§¨":7874,"Ġë¡¯":7875,"ĠëĳĺëŁ¬":7876,"Ġcalc":7877,"TS":7878,"ĠìŀĲê¸Ī":7879,"Gr":7880,"efore":7881,"Ġdiscussed":7882,"ĠëıĮìķĦê°Ģ":7883,"ëłģ":7884,"Ġwife":7885,"Ġtypically":7886,"ĠìĹ´ë¦°":7887,"ì¢ĭ":7888,"Ġopinion":7889,"Ġec":7890,"Ġobvious":7891,"file":7892,"ĠìĻĦë²½":7893,"Ġrecept":7894,"Des":7895,"Ġì§Ħë£Į":7896,"itro":7897,"ë²¼":7898,"ëĴ":7899,"Ġrapid":7900,"Ġë¯Ģë¡ľ":7901,"ĠáĦı":7902,"ĠPhil":7903,"ki":7904,"ĠâĨ":7905,"Ġì¡°ìĭ¬":7906,"Sc":7907,"Ġê³łìĸĳ":7908,"ĠìĮĢ":7909,"Ġcomparison":7910,"Ġìĺ¤ë¥´":7911,"odies":7912,"ĠëĤĺìĻĢìĦľ":7913,"Ġmeasures":7914,"æľ":7915,"ario":7916,"Ġaxis":7917,"tify":7918,"Ġbrief":7919,"Ġplug":7920,"ĠAir":7921,"Ġì§Ģêµ¬":7922,"Ġgeneration":7923,"ĠíĻķë³´":7924,"''":7925,"ĠíķĺìĿ´":7926,"Ġpassed":7927,"ĠBig":7928,"Ġwind":7929,"Ġë°ĺë³µ":7930,"Ġshowing":7931,"Ġfinally":7932,"ĠInternational":7933,"ban":7934,"Ġpaid":7935,"ĠíĮĮìķħ":7936,"ĠëłĪìĿ´":7937,"Ġexternal":7938,"ãĤī":7939,"Ġreturned":7940,"ĠìĥĿìĿ¼":7941,"Ġcamer":7942,"¼Ī":7943,"hold":7944,"Ġindicated":7945,"Ġunl":7946,"ĠìĬ¤íħĮ":7947,"Ġtend":7948,"Ġmac":7949,"Ġtemplate":7950,"ĠWell":7951,"ĠíĺĦì§Ģ":7952,"autiful":7953,"ì¢Į":7954,"ael":7955,"Ġìļ°ëł¤":7956,"Ġëį°ìĿ´íĦ°":7957,"Ġsuccessful":7958,"Ġthin":7959,"Ñĭ":7960,"ĠìĥĿê¸´":7961,"Ġequival":7962,"Ġì£¼ìĿĺ":7963,"clus":7964,"gy":7965,"Ġletter":7966,"Ġê´ĳì£¼":7967,"ĠSen":7968,"íĺģ":7969,"Ġdelay":7970,"ë¨¸ë¦¬":7971,"ĠÐ¿":7972,"Ġapproximately":7973,"ì½©":7974,"Ġë¶Ħê¸°":7975,"ëľ¨":7976,"itect":7977,"Ġvel":7978,"Ġoperations":7979,"ows":7980,"ĠìĥĿëªħ":7981,"ĠëĤ¸":7982,"grad":7983,"ĠCong":7984,"Ġstra":7985,"Ġfirm":7986,"ĠéĢ":7987,"Ġvill":7988,"sole":7989,"ĠíŀĲ":7990,"ĠëĮĢìłĦ":7991,"Ġdistin":7992,"men":7993,"GF":7994,"ĠUK":7995,"ĠMoreover":7996,"ener":7997,"Ġcoe":7998,"Ġplus":7999,"ĠìĥĪë²½":8000,"Ġì»µ":8001,"Ġì¤Ģëĭ¤":8002,"ĠìŀĲê³ł":8003,"Ġlaws":8004,"Ġbenefit":8005,"ĠGroup":8006,"ĠìĿ¼ì°į":8007,"Ġì¦Ī":8008,"gl":8009,"Ġrout":8010,"Ġì£¼ë¡ľ":8011,"Ġinterface":8012,"Ġgets":8013,"osen":8014,"Ġë³µì§Ģ":8015,"ĠDelta":8016,"izations":8017,"Ĩŀ":8018,"Ġëĭ¨ìĪľ":8019,"________":8020,"Ġgold":8021,"Ġtherapy":8022,"Ġíĺĳëł¥":8023,"Ġworkers":8024,"key":8025,"ÙĦ":8026,"Ġmagn":8027,"Ġrich":8028,"Ġtechnique":8029,"tren":8030,"Ġminimum":8031,"ĠIndian":8032,"Ġna":8033,"Ġweak":8034,"Ġêµ´":8035,"ĠFrench":8036,"Ġderived":8037,"ĠìľłëŁ½":8038,"Ġglass":8039,"Ġê³µìľł":8040,"Ã§":8041,"ĠëĮĵ":8042,"ĠAny":8043,"ĠJust":8044,"Ġmeth":8045,"Ġíİľ":8046,"Ġremoved":8047,"ìĿ´ìħĺ":8048,"quest":8049,"ĠìĤ¬ìĿ´íĬ¸":8050,"ysis":8051,"íķľêµŃ":8052,"Ġdetection":8053,"tin":8054,"ë¹µ":8055,"ĠOut":8056,"ĠCap":8057,"aran":8058,"Ġchain":8059,"ĠØ":8060,"Ġut":8061,"aught":8062,"Ġubuntu":8063,"](":8064,"Ġëĭ´ëĭ¹":8065,"ìĤ¬ëŀĮ":8066,"ĠëĨĢìĿ´":8067,"ĠìµľìĨĮ":8068,"íĴĢ":8069,"ĠAND":8070,"Ġextrem":8071,"Ġstock":8072,"ĠëĬĲëĥĲ":8073,"ÐµÐ":8074,"Ġfresh":8075,"Ġcop":8076,"Ġliquid":8077,"Se":8078,"ictions":8079,"fo":8080,"ĠìłĦíķĺ":8081,"Ġê´ĳê³ł":8082,"Ġfiled":8083,"Ġgun":8084,"Ġ');":8085,"Ġ}=":8086,"Ġtens":8087,"ëĭĪëĭ¹":8088,"ëª¸":8089,"Ġì¼Ģìĸ´":8090,"Ġrevealed":8091,"Ġcycle":8092,"ny":8093,"ugh":8094,"ĠOR":8095,"Ġda":8096,"OW":8097,"ĠíĻĪíİĺìĿ´ì§Ģ":8098,"ĠìĿ´íķĺ":8099,"Ġsymbol":8100,"ìĹĦë§Ī":8101,"Ġsummary":8102,"Ġëĺĳê°Ļ":8103,"ilies":8104,"Ġbond":8105,"Ġproteins":8106,"ĠæĹ¥":8107,"Ġwild":8108,"ĠGoogle":8109,"ĠíĺĦìĥģ":8110,"Ġlatest":8111,"Ġphosph":8112,"Ġéģ":8113,"aughter":8114,"Ġreached":8115,"Ġstraight":8116,"Ġanimals":8117,"Ġêµ¿":8118,"ĠíĦ¸":8119,"Ġnoise":8120,"Ġchance":8121,"Ġsuggested":8122,"orney":8123,"ãģ£":8124,"adding":8125,"ãĥ«":8126,"Ġperhaps":8127,"ë²¨":8128,"Ã£":8129,"Ġcarbon":8130,"Ġpurs":8131,"Ġerrors":8132,"Ġsupply":8133,"Ġgrowing":8134,"ĠìĬ¹ë¦¬":8135,"ologies":8136,"Ġsoft":8137,"ÑĮ":8138,"Ġmort":8139,"tun":8140,"Ġreplace":8141,"ĠSS":8142,"ĠìĦŀ":8143,"Ġsust":8144,"Ġì°¨ì§Ģ":8145,"onom":8146,"ĠíĸīìľĦ":8147,"oting":8148,"inant":8149,"Ġhypoth":8150,"Ġê³µìĭĿ":8151,"Ġtren":8152,"Ġinjury":8153,"ĠëĪĪë¬¼":8154,"Ġmanner":8155,"Ġquanti":8156,"Ġdry":8157,"ë¯Ģë¡ľ":8158,"ĠëĲ¨":8159,"ĠìĿ´ìĽĥ":8160,"ensions":8161,"ĠëıĻëĦ¤":8162,"ĠêµĲìłķ":8163,"Ġfeet":8164,"Ġcriter":8165,"Ġpt":8166,"Ġportion":8167,"ĠGl":8168,"ĠìĸĳëħĲ":8169,"ashington":8170,"Ġë³Ģê²½":8171,"iment":8172,"ĠìĿ´ìĿµ":8173,"Ġeffort":8174,"äº":8175,"ĠAR":8176,"Ġintroduced":8177,"Ġreli":8178,"ê·¸ëŁ¼":8179,"ĠMost":8180,"Ġempty":8181,"Ġê·¸ê²Į":8182,"Ġprobability":8183,"Ġresolution":8184,"ìķĦë¬´":8185,"ingu":8186,"Ph":8187,"ĠìĹī":8188,"Cal":8189,"iated":8190,"ĲëŁ¬ëĵľ":8191,"mark":8192,"ĠAre":8193,"Ġamb":8194,"ĠDE":8195,"Ġgirl":8196,"Ġbuff":8197,"ĠCr":8198,"itness":8199,"ãģĤ":8200,"ĠRead":8201,"Ġresponsible":8202,"Ġfear":8203,"ĠêµĲíļĮ":8204,"Ġë¥´":8205,"Ġfemale":8206,"Ġunf":8207,"Ġëĭ¤ìĿ´":8208,"Ġindicate":8209,"Ġê³±":8210,"ĠëģĿëĤĺ":8211,"Ġimproved":8212,"Ġaffect":8213,"icit":8214,"Ġê¸Īë¦¬":8215,"Ġsell":8216,"utor":8217,"Ġê°ķëĤ¨":8218,"bes":8219,"oper":8220,"Ġê´Ģíķľ":8221,"Ġagree":8222,"Ġmagnetic":8223,"ĠìĤ¬ë¡Ģ":8224,"Ġhappy":8225,"abel":8226,"ĠáĦĴáĦĴáĦĴ":8227,"ëŁ¬ìļ´":8228,"ĠìłľìĻ¸":8229,"Ġë¹łì§Ģ":8230,"Ġdied":8231,"Ġæķ":8232,"íĵ¨":8233,"Ġpow":8234,"ìľ¼ë©´":8235,"point":8236,"ĠìĶ»":8237,"ê·¸ëŁ°ëį°":8238,"CA":8239,"arest":8240,"Ġê±´ì¡°":8241,"Ġexception":8242,"Ġê³µíķŃ":8243,"ĠíĻĶìŀ¥ìĭ¤":8244,"ĠëĤĺìĺ¬":8245,"DA":8246,"och":8247,"ìĻľ":8248,"ĠâĢĲ":8249,"Ġhearing":8250,"Ġclub":8251,"tore":8252,"ì½ĺ":8253,"ĠìļĶì²Ń":8254,"Ġê±¸ìĸ´":8255,"ìľ¼ëĭĪ":8256,"Ġtermin":8257,"Ġlif":8258,"Ġì¢ħíķ©":8259,"Ġfloor":8260,"Ġesc":8261,"Ġalternative":8262,"ĠíķĻëħĦ":8263,"My":8264,"Ġbin":8265,"ĠCS":8266,"Ġsubstr":8267,"ĠíĶ¼ìŀĲ":8268,"Ġscience":8269,"Ġpresident":8270,"Ġ\\<":8271,"Ġcommunic":8272,"Ġtempor":8273,"Ġcateg":8274,"Ġì»·":8275,"Ġfont":8276,"ĠYes":8277,"ba":8278,"ĠSK":8279,"Ġchemical":8280,"bi":8281,"ĠRel":8282,"íĢ":8283,"ĠëŃĺ":8284,"Ġtoken":8285,"ë¦¬ì¹´":8286,"Ġcategory":8287,"Ġreasonable":8288,"ĠPaul":8289,"pass":8290,"Ġì§Ģê¸ī":8291,"ĠíĺĲìĿĺ":8292,"Ġ\\],":8293,"Ġì¡±":8294,"íĹ¤":8295,"Ġë³´ëıĦ":8296,"Ġìĭ¤ìłľë¡ľ":8297,"Ġjava":8298,"isation":8299,"ëĨĢ":8300,"ĠëįĶêµ°ìļĶ":8301,"Ġprotocol":8302,"Ġtrip":8303,"iled":8304,"Ġpp":8305,"Ġå¤§":8306,"ì§ĵ":8307,"Ġë¡ł":8308,"Ġinstr":8309,"ì¡°ê±´":8310,"ĠìľĦê¸°":8311,"Ġtrig":8312,"Ġideas":8313,"Ġwood":8314,"Ġìľ¼ë¡ľìį¨":8315,"Ġìĸ´ìļ¸ë¦¬":8316,"Ġsecret":8317,"Ġcomplic":8318,"bing":8319,"Ġplate":8320,"Ġcompet":8321,"ĠPeople":8322,"Ġinfl":8323,"Ġê°ĲìĹ¼":8324,"ĠJe":8325,"Ġíķ¸ëĵľ":8326,"inese":8327,"ĠService":8328,"ĠGovern":8329,"ëĤ¼":8330,"Ġcivil":8331,"Me":8332,"Ġì§ĢìĭĿ":8333,"ĠNote":8334,"round":8335,"Ġcomposition":8336,"ĠíķĺëĿ½":8337,"atur":8338,"Ġeight":8339,"She":8340,"Ġbrand":8341,"ĠEach":8342,"íĭ±":8343,"Ġê´´":8344,"Ġtruth":8345,"ĠPal":8346,"ĠìłĬ":8347,"aints":8348,"rome":8349,"ooth":8350,"Ġij":8351,"ĠSam":8352,"Ġì¹ł":8353,"Ġíķłê¹Į":8354,"Ġaward":8355,"Ġshared":8356,"ĠëĮĢìĿĳ":8357,"From":8358,"Ġpiece":8359,"ĠMag":8360,"};":8361,"Ġadjust":8362,"Ġpool":8363,"ĠëĪĦê°Ģ":8364,"Ġparams":8365,"ĠìĬ¤íı¬":8366,"ëĭ¤ëĭĪ":8367,"Ġlock":8368,"ë¹Ī":8369,"Ġcatch":8370,"Ġconstruc":8371,"Ġestimated":8372,"Ġ{{\\":8373,"ĠOther":8374,"ĠìĺĪìĪł":8375,"itiv":8376,"ë¦ī":8377,"arian":8378,"Ġassemb":8379,"ìĹ¬ëŁ¬":8380,"atin":8381,"ĠRem":8382,"Ġíķ«":8383,"rel":8384,"ĠResearch":8385,"Ġrecorded":8386,"ĠDay":8387,"Ġsitu":8388,"ivery":8389,"Ġserved":8390,"ĠCT":8391,"Ġletters":8392,"âĪ":8393,"Ġgrand":8394,"Ġmur":8395,"Ġscope":8396,"ìĦľìļ¸":8397,"entific":8398,"Ġcustomer":8399,"ĠìĺĪìĪĺ":8400,"Ġdemonstrated":8401,"Ġmigr":8402,"ĠìŀĲëŀĳ":8403,"Ġ\"><":8404,"Ġì¡°ì¹ĺ":8405,"Ġconfiguration":8406,"Ġëį§":8407,"Ġcreating":8408,"Ġrock":8409,"Ġsav":8410,"ĠíĹ¬":8411,"ĠëĩĮ":8412,"Ġê°ĢëģĶ":8413,"tn":8414,"Ġbehavi":8415,"Ġorient":8416,"amin":8417,"omas":8418,"ĠWhy":8419,"Ġabsor":8420,"Ġefficiency":8421,"xy":8422,"Ġapparent":8423,"Ġfill":8424,"Ġë¶ĪëŁ¬":8425,"Ġê³Ħìĭł":8426,"tives":8427,"Ġprepared":8428,"Ġvolt":8429,"Ġquad":8430,"Ġliterature":8431,"Ġ_.":8432,"Ġcast":8433,"ĠíĿ¬ë§Ŀ":8434,"Ġgenerate":8435,"ĠíĥĢìĿ´":8436,"Ġrecords":8437,"Ġcombined":8438,"Ġadvantage":8439,"Ġwa":8440,"cel":8441,"Ġë¹łìł¸":8442,"Ġsales":8443,"Ġloop":8444,"gar":8445,"rael":8446,"âĢĶ":8447,"Of":8448,"ĠíĻķìĭ¤íŀĪ":8449,"ĠPri":8450,"Ġencour":8451,"ĠWhite":8452,"Ġ..\"":8453,"Ġë³´ê³ł":8454,"ëĸ¡":8455,"ync":8456,"ĠCt":8457,"Ġprotection":8458,"Ġkept":8459,"ĠWashington":8460,"Ġemployees":8461,"phas":8462,"Ġê¸Ģë¡ľ":8463,"Ġê±¸ë¦¬":8464,"Ġê¹ľ":8465,"Ġìŀ¥ëĤľ":8466,"ĠíĨ¤":8467,"Ġspin":8468,"ë¹Ļ":8469,"ëģĪ":8470,"Ġcollected":8471,"Ġskills":8472,"Ġê¾¸ì¤ĢíŀĪ":8473,"ëģĮ":8474,"etr":8475,"Ġcounsel":8476,"Ġsummer":8477,"íĶĦíĬ¸":8478,"ags":8479,"Ġcryst":8480,"ĠWindow":8481,"Ġok":8482,"Ġsquare":8483,"Ġcorpor":8484,"Ġpatterns":8485,"ĠìĤ°ì±ħ":8486,"Ġflat":8487,"Ġtested":8488,"Ġmail":8489,"Ġmaybe":8490,"Ġë³´ìľł":8491,"Ġearn":8492,"Ġì¡°ìĦł":8493,"ìĻĢìĦľ":8494,"Ġstuff":8495,"Ġcorrel":8496,"qual":8497,"ĠMal":8498,"ours":8499,"Ġnodes":8500,"Ġìĭ¤íĮ¨":8501,"ĠìķŀìĦľ":8502,"Ġoccup":8503,"vis":8504,"Ac":8505,"poses":8506,"py":8507,"ĠêµŃë¬¼":8508,"Ġconflic":8509,"ĠìĹ¬ìłĦíŀĪ":8510,"ĠìĦŃì·¨":8511,"Ġrelation":8512,"Ã£o":8513,"Ġê·¼ìľ¡":8514,"atever":8515,"pace":8516,"Ġforeign":8517,"Qu":8518,"ĠíĽĪëł¨":8519,"Ġsuppl":8520,"ĠEvery":8521,"Ġmotor":8522,"while":8523,"Ġ}$,":8524,"zon":8525,"ĠìŀĳëħĦ":8526,"ëĵľìĭľ":8527,"acters":8528,"Ġarrang":8529,"ĠDavid":8530,"Ġseemed":8531,"ĠëĵĿ":8532,"abil":8533,"Ġconserv":8534,"Ġë¡¯ëį°":8535,"ìĿ´ëĤł":8536,"Ġì¹´ë©ĶëĿ¼":8537,"gu":8538,"Ġìŀ¥ë¹Ħ":8539,"ĠType":8540,"ĠFurthermore":8541,"args":8542,"ìĥĿê°ģ":8543,"Ġìĸ´ì°Į":8544,"ĠWeb":8545,"Ġguid":8546,"ãģ¦ãģĦ":8547,"ĠëĮĢì²´":8548,"ëĵ¬":8549,"Ġì§Ħìłķ":8550,"ĠìĹ°ê¸°":8551,"math":8552,"Ġcircumst":8553,"Ġfloat":8554,"Ġrace":8555,"reate":8556,"Ġleads":8557,"ê·¸ëŁ¬ëĤĺ":8558,"Ġwhereas":8559,"ded":8560,"ĠíĬ¼":8561,"SE":8562,"dr":8563,"itle":8564,"Ġexamples":8565,"ĠìĺĽ":8566,"Ġjur":8567,"lands":8568,"ìĿ¼ëĭ¨":8569,"Ġë¹łë¥¸":8570,"Ġspent":8571,"Ġadministration":8572,"Ġë°°ìĨ¡":8573,"ĠíĬ¹ì§ķ":8574,"berg":8575,"ëĵ¯":8576,"Ġsen":8577,"jected":8578,"Ġconduct":8579,"ĠìĿ¸ìĭĿ":8580,"Ġë°ĶëĿ¼ë³´":8581,"Ġcommercial":8582,"gery":8583,"ĠìĪĺì¶ľ":8584,"Ġburn":8585,"Ġprepar":8586,"ĠìĦ¤ìłķ":8587,"unc":8588,"Ġëª°ëŀĲ":8589,"íķĻìĥĿ":8590,"ĠIL":8591,"Ġjury":8592,"Ġìĭ¤ëĤ´":8593,"Ġëĵ¤ìĸ´ê°Ķ":8594,"roy":8595,"Ġë¯¸ìķĪ":8596,"hes":8597,"Ġâĺ":8598,"Ġsubjects":8599,"ëŃĲ":8600,"dy":8601,"Time":8602,"ollow":8603,"Ġfer":8604,"ĠEv":8605,"ìķĦëĵ¤":8606,"ìłĦìŀĲ":8607,"Ġtumor":8608,"Ġíĳľìłķ":8609,"Ġcontainer":8610,"Ġchallenge":8611,"Ġìłľëª©":8612,"ĠæŃ":8613,"Ġë¬µ":8614,"Ġserve":8615,"String":8616,"ĠVir":8617,"ocket":8618,"Ġà":8619,"Ġsociety":8620,"Ġcorrelation":8621,"gest":8622,"Ġmeasurements":8623,"ĠSC":8624,"ëĺĲíķľ":8625,"Ag":8626,"Ġspecifically":8627,"Com":8628,"Ind":8629,"Ġassume":8630,"Ġoptical":8631,"Ã¥":8632,"Ġimportance":8633,"ĠUSA":8634,"essage":8635,"Ġpicture":8636,"PA":8637,"Ġë°ĶëĢĮ":8638,"olved":8639,"ĠìĽĲìŀ¥":8640,"Ġê³łëĵ±":8641,"Ġëĵ¤ìĸ´ê°Ħ":8642,"ĠJack":8643,"References":8644,"teen":8645,"ormal":8646,"Ġbeautiful":8647,"------":8648,"Ġvan":8649,"ĠÐ²":8650,"ĠëĤ¨ìĦ±":8651,"Ġë¶Ģë¶Ģ":8652,"Ġpolic":8653,"roph":8654,"aine":8655,"istical":8656,"timate":8657,"ĠCode":8658,"istant":8659,"Ġä¸Ń":8660,"íĵ¨íĦ°":8661,"ĠÂ»":8662,"Ġcouldn":8663,"Ġod":8664,"ĠìĻ¼":8665,"Ġinner":8666,"Ġdetected":8667,"Ġexchange":8668,"Ġdiam":8669,"Ġstack":8670,"Ġìª":8671,"Ġhappen":8672,"Ġìłľíķľ":8673,"ĠTwo":8674,"ĠìĹ¬ë¶Ģ":8675,"ĠTO":8676,"Ġ\\}":8677,"ĠìĨĶì§ģ":8678,"Ġmembr":8679,"Ġfamilies":8680,"Ġsynth":8681,"ĠAPI":8682,"oes":8683,"Ġê·ĢìĹ½":8684,"Ġarguments":8685,"Ġìĸ´ì©Į":8686,"ĠìłĦíĻĺ":8687,"Ġtrust":8688,"ĠSal":8689,"ĠMicro":8690,"Ġaffected":8691,"Ġcomfort":8692,"Ġheavy":8693,"ëĦĺ":8694,"Ġë¯¼ì£¼ëĭ¹":8695,"ìĺģìĥģ":8696,"ĠìĭľëıĦ":8697,"Ġdot":8698,"Ġhem":8699,"Ġè¡":8700,"Ġframework":8701,"ĠìĿ´ë¤Ħ":8702,"ĠEast":8703,"pto":8704,"Ġë¬¼ì§Ī":8705,"Ġextr":8706,"Ġreplacement":8707,"Ġ\\\"":8708,"Ġì¹ĺê³¼":8709,"Ġê°Ģë°©":8710,"ìĳ":8711,"Ġsupplement":8712,"ĠìľĦìĽĲìŀ¥":8713,"Ġcomments":8714,"ĠClass":8715,"Ġcold":8716,"ì»¬":8717,"ìĸ´ëĸ":8718,"PL":8719,"Ġlibrary":8720,"Ġà¤":8721,"Ġì¡°ìĦ±":8722,"Or":8723,"ĠìĬµê´Ģ":8724,"Ġepis":8725,"Ġì°¸ìĦĿ":8726,"ĠÑģ":8727,"Ġpropor":8728,"Ġlargest":8729,"ĠëŁ°":8730,"Ġappeared":8731,"Ġvac":8732,"ĠëĦ¤ìĿ´ë²Ħ":8733,"ĠCommun":8734,"ectors":8735,"Ġë¹Ļ":8736,"Ġëĵ±ê¸ī":8737,"Ġexpert":8738,"ĠSuper":8739,"Ġë¸ĮëĿ¼":8740,"Ġthread":8741,"Ġshot":8742,"Ġsurround":8743,"Ġdanger":8744,"Ġãģķ":8745,"Ġì§Ģì§Ģ":8746,"ĠìĭľíĤ¨":8747,"ĠGerman":8748,"ĠPS":8749,"Ġhappened":8750,"Ġexposure":8751,"Ġê°Ģë¥´":8752,"Ġinsurance":8753,"Ġaf":8754,"data":8755,"ĠëĬĲëĤĦ":8756,"ë½":8757,"rupt":8758,"Ġdf":8759,"ĠëĵľëĿ¼ë§Ī":8760,"Ġequipment":8761,"ë¬´ìĽĲ":8762,"ĠMac":8763,"Ġë¬´ë¦¬":8764,"Ġplans":8765,"Ġë°Ķê¾¸":8766,"soft":8767,"Ġ\").":8768,"ĠìłĦìŁģ":8769,"Ġexplain":8770,"Ġíķµìĭ¬":8771,"Ã³n":8772,"Ġ=[":8773,"Ġê¸°ëıĦ":8774,"elled":8775,"Ġcompleted":8776,"ëĭī":8777,"width":8778,"Ġwhom":8779,"Ġìĸ´ìļ©":8780,"Ġë°©ì§Ģ":8781,"Ġrare":8782,"ìĭ¼":8783,"Ġä¼":8784,"Ġtilde":8785,"Ġìŀħêµ¬":8786,"à¥":8787,"known":8788,"ìĹĶ":8789,"ĠìķĦìī½":8790,"ogene":8791,"Ġê²Ģì°°":8792,"Ġíģ¬ë¦¬ìĬ¤":8793,"abilities":8794,"Ġcontrolled":8795,"Ġgrid":8796,"Ġê·¸ëŁ´":8797,"rete":8798,"Ġê³ĦëŀĢ":8799,"Ġë°©ìķĪ":8800,"Ã¨":8801,"ĠTime":8802,"Ġ+\\":8803,"Ġfarm":8804,"ĠíĹĮ":8805,"Ġplants":8806,"ĠIsrael":8807,"ĠìĿ´ë¥´":8808,"Ġíı¼":8809,"Field":8810,"anned":8811,"Ġregul":8812,"urt":8813,"ëĤ©":8814,"allel":8815,"Ġwarm":8816,"Ġnearest":8817,"ĠìĥĪìļ°":8818,"Ġmes":8819,"Ġveloc":8820,"Ġspot":8821,"ulty":8822,"uto":8823,"duct":8824,"Acc":8825,"inst":8826,"Ġexercise":8827,"ĠíĥĢìŀĦ":8828,"Ġìĥģëĭ¹íŀĪ":8829,"CE":8830,"Ġolder":8831,"Ġì°°":8832,"FF":8833,"Ġdriver":8834,"íĺ¸ìĤ¬":8835,"ĠÍ":8836,"ĠChinese":8837,"ì¹ľêµ¬":8838,"Ġsoil":8839,"Ġpicked":8840,"ulf":8841,"ĠRich":8842,"Ġgain":8843,"Ġicon":8844,"Sim":8845,"Ġì²´ê³Ħ":8846,"ĠKe":8847,"Ġraised":8848,"Ġëļľ":8849,"Ġextension":8850,"Ġëĭ¤ë§Į":8851,"Ġminor":8852,"Ġincorpor":8853,"ĠëĲľëĭ¤ëĬĶ":8854,"enses":8855,"Ġmissing":8856,"Ġìłľìĭľ":8857,"Ġthresh":8858,"Ġscr":8859,"ĠKn":8860,"Ġexplained":8861,"aby":8862,"Ġpurposes":8863,"Ġbelong":8864,"arc":8865,"ĠIII":8866,"ĠCanada":8867,"ĠCE":8868,"Ġì°¨ë¡Ģ":8869,"ĠRev":8870,"ĠPlease":8871,"Ġcharacters":8872,"Ġíķľì§Ģ":8873,"Ġì°©ìļ©":8874,"gs":8875,"itely":8876,"ĠíĨµíķ©":8877,"Ġevolution":8878,"PE":8879,"Ġopened":8880,"Ġë°ĺì°¬":8881,"Ġextent":8882,"iant":8883,"Ġvirus":8884,"Ġtour":8885,"ĠCompany":8886,"Ġë°ĺëĵľìĭľ":8887,"Ġ'),":8888,"Ġinstruc":8889,"Ġëįĺì§Ģ":8890,"Ġmetab":8891,"Ġfootball":8892,"ĠBen":8893,"Class":8894,"ëĭ¤ë¦¬":8895,"Ġorigin":8896,"Ġë¶Īêµ¬":8897,"Ġê¸°ë°ĺ":8898,"ĠArt":8899,"itz":8900,"ĠìĨĮë¹ĦìŀĲ":8901,"Ġdiscussion":8902,"ingly":8903,"Value":8904,"Ŀł":8905,"Ġì¦Ŀê¶Į":8906,"ìĵ°":8907,"ê²¹":8908,"wood":8909,"ĠíĺľíĥĿ":8910,"Ġforces":8911,"yc":8912,"ĠSur":8913,"Ġaccuracy":8914,"Ġoperating":8915,"Ġevaluation":8916,"Ġëĵłì§Ģ":8917,"PC":8918,"Ġhealthy":8919,"Ġreturns":8920,"ĠBank":8921,"ĠæĿ":8922,"Ġê¸Ģë¡ľë²Į":8923,"date":8924,"no":8925,"ĠìĤ´íİ´ë³´":8926,"Ġë³¶ìĿĮ":8927,"Ġindustr":8928,"Ġstable":8929,"ette":8930,"ago":8931,"Ġenvironmental":8932,"Ġinfection":8933,"Ġ\"></":8934,"Ġfacts":8935,"Ġnice":8936,"ĠëĮĢê¸°":8937,"Ġsuggests":8938,"Ġê°ľìµľ":8939,"Ġìĭľë¦¬":8940,"Ġfab":8941,"lective":8942,"ĠìĥĲëŁ¬ëĵľ":8943,"Ġthrow":8944,"ellent":8945,"ĠëĭĪê¹Ĳ":8946,"íľĺ":8947,"ĠTechn":8948,"Ġë»Ķ":8949,"Ġslightly":8950,"Ġoffered":8951,"ĠìĪĺëıĦ":8952,"ĠíĤ¤ìļ°":8953,"Ġmanager":8954,"Ġëĸ¼":8955,"Ġnation":8956,"Ġnorth":8957,"Ġsci":8958,"Ġìĺµ":8959,"Ġinterpret":8960,"ĠSecond":8961,"Ġgone":8962,"ë¨¸ì§Ģ":8963,"íķľíİ¸":8964,"ano":8965,"Ġsexual":8966,"ë³¶ìĿ´":8967,"Ġfrag":8968,"entral":8969,"Ġìķ±":8970,"Ġopening":8971,"Ġì¶Ķìĸµ":8972,"Ġë§ĪìĤ¬":8973,"reh":8974,"ìĦ°":8975,"Ġìĭ¤ëł¥":8976,"Ġì§ĢìĪĺ":8977,"Ġë¯¸ëĭĪ":8978,"Ġidentity":8979,"reek":8980,"lam":8981,"Ġshap":8982,"ĠBoard":8983,"ĠìĦ±ê²©":8984,"Ġyes":8985,"Ġneutr":8986,"Ġcdot":8987,"ì°¬ê°Ģì§Ģ":8988,"ĠJames":8989,"ĠìĪĺìŀħ":8990,"ĠCa":8991,"ĠìĥĿê²¨":8992,"ĠìŀĲë©´":8993,"Ġmetric":8994,"ĠMiss":8995,"Ġìŀłê¹Ĳ":8996,"ĠDuring":8997,"Ġion":8998,"ĠìĨĮì¤ĳ":8999,"Ġmenu":9000,"ady":9001,"ĠëħĢìĦĿ":9002,"Ġprove":9003,"ĠëĮĵê¸Ģ":9004,"nel":9005,"ĠëĤ¨ê²¨":9006,"ĠìĿ¸íķľ":9007,"Ġelectron":9008,"ĠæľĪ":9009,"Ġë§ŀì¶¤":9010,"inter":9011,"ĠìĻ¸ë¶Ģ":9012,"Ġangle":9013,"ilder":9014,"ĠForm":9015,"Ġ%),":9016,"ĠMath":9017,"Ġê°ķìķĦì§Ģ":9018,"ĠìĨĮëĵĿ":9019,"Ġdecrease":9020,"Ġoccurred":9021,"Ġë®¤":9022,"Ġë³¸ê²©":9023,"ĠCommission":9024,"orter":9025,"ĠìĬ¤íı¬ì¸ł":9026,"Ġagents":9027,"lebr":9028,"Ġefforts":9029,"ë§¹":9030,"tf":9031,"Ġring":9032,"ĠDemocr":9033,"Ġspat":9034,"ĠìłĦíķ´":9035,"Rec":9036,"ATE":9037,"itivity":9038,"ronic":9039,"íķĺë£¨":9040,"êµ°ê°Ģ":9041,"Ġconventional":9042,"Ġvary":9043,"Ġcollect":9044,"ĠëĮĢì±ħ":9045,"inder":9046,"Ġë¬´ì¡°ê±´":9047,"ĠìĤ¬ìłĦ":9048,"Ġìłľì¡°":9049,"Ġhuge":9050,"Ġactivation":9051,"Ġremaining":9052,"Ġêµ¬ìĽĮ":9053,"Ġsmooth":9054,"ello":9055,"Ġë©ĺ":9056,"ĠãĢĤ":9057,"Ġfn":9058,"Ġnd":9059,"Ġì·¨ìĹħ":9060,"ë¯¼êµŃ":9061,"ĠìĽĲíķĺ":9062,"ĠëĪĮ":9063,"ĠGreen":9064,"ĠëĨĢëĿ¼":9065,"ĠìķĦë¬´ëŀĺëıĦ":9066,"Ġuniform":9067,"bu":9068,"Ġrepresents":9069,"Ġgeom":9070,"ĠUnder":9071,"Ġbatch":9072,"err":9073,"Ġphp":9074,"Ġarchitect":9075,"ĠëĵľëĶĶìĸ´":9076,"Ġìıĺ":9077,"ĠCL":9078,"Ġpas":9079,"ipping":9080,"Ġìľ¼ë¡ľìĦľ":9081,"Ġcertainly":9082,"ĠìĤ¬ê³¼":9083,"Ġunless":9084,"Ġcalls":9085,"ville":9086,"Here":9087,"edom":9088,"Ġintended":9089,"Ġimplic":9090,"Ġbacter":9091,"Ġpredict":9092,"htt":9093,"Ġë°ľëĿ¼":9094,"Ġnm":9095,"Text":9096,"Ġëª¨ìŀĦ":9097,"ìĸ´ì§Ħ":9098,"Ġê²½ê¸°ëıĦ":9099,"Ġ}(\\":9100,"Ġrepro":9101,"Ġtom":9102,"ĠíķŃê³µ":9103,"titutional":9104,"Ġearth":9105,"Ġviews":9106,"Ġlegis":9107,"Ġê¸Īë°©":9108,"Ġpartners":9109,"Ġbalance":9110,"Ġmedic":9111,"that":9112,"Ġpassword":9113,"ĠOpen":9114,"Ġwire":9115,"Ġ\"\"\"":9116,"Ñĩ":9117,"Ġcovered":9118,"Ġcauses":9119,"Ġcompare":9120,"Ġdespite":9121,"ĠSM":9122,"Fr":9123,"Ġinterested":9124,"ĠìĺģêµŃ":9125,"Ġ*.":9126,"Ġresponses":9127,"utation":9128,"ĠExp":9129,"oles":9130,"Ġstored":9131,"Ġembed":9132,"ĠCirc":9133,"Ġê³µìŀ¥":9134,"Ġë¯¸ìļ©":9135,"Ġ';":9136,"Ġdeveloping":9137,"ĠHam":9138,"TP":9139,"Ġáħ®áħ®":9140,"Ġå·":9141,"ê¹Ŀ":9142,"igen":9143,"Ġíģ´ë¦Ń":9144,"osit":9145,"ãĤ¤":9146,"Ġdimensional":9147,"ĠíĻľìĦ±":9148,"Ġpun":9149,"Ð²":9150,"(\\":9151,"ìķĦëĭĪ":9152,"Ġsouth":9153,"ĠJew":9154,"ĠåĮ":9155,"Ġvictim":9156,"Ġfold":9157,"Ġì§ĢëĤ´":9158,"Ġkeys":9159,"TA":9160,"Ġdelivery":9161,"fl":9162,"ĠUser":9163,"ĠWindows":9164,"ĠíĹĪë¦¬":9165,"ĠAp":9166,"Ġcontrols":9167,"ĠSuch":9168,"ĠTri":9169,"Ġtalking":9170,"Ġimplementation":9171,"Ġfeeling":9172,"ras":9173,"Ġnetworks":9174,"Ġpurchase":9175,"BA":9176,"ĠíĻįë³´":9177,"ìĿ´íĮħ":9178,"Ġprotect":9179,"Ġguide":9180,"Ġunders":9181,"Ġreflect":9182,"Ġê°Īë¹Ħ":9183,"ëĭĮ":9184,"Ġhus":9185,"Ġts":9186,"eturn":9187,"Ġscheme":9188,"Ġspirit":9189,"Ġë§Īì°¬ê°Ģì§Ģ":9190,"Ġholding":9191,"Ġrise":9192,"Ġëĭ¨ìĸ´":9193,"ella":9194,"ê»ı":9195,"ĠìĹ°ìĨį":9196,"Ġfif":9197,"ìĸ´ëĵ¤":9198,"Ġì¹¨ëĮĢ":9199,"retion":9200,"Ġbreath":9201,"ĠNS":9202,"Ġdisapp":9203,"Ġë²¨":9204,"Ġê°ĲìŀĲ":9205,"Def":9206,"ĠìºĲë¦Ń":9207,"Ġemphas":9208,"Ġë°ĺìĺģ":9209,"Ġamaz":9210,"Ġdial":9211,"ĠíĿĶëĵ¤":9212,"Ġspring":9213,"Ġtro":9214,"Ġìŀ¬ë¯¸ìŀĪ":9215,"Ġ\"},":9216,"Ġmargin":9217,"ographic":9218,"Ġ..?":9219,"Ġxi":9220,"bra":9221,"Ġë¶Ģìłķ":9222,"íĭ´":9223,"Ġë§Įìķ½":9224,"Ġsecondary":9225,"ĠObject":9226,"Ġannounced":9227,"going":9228,"Ġcoach":9229,"Ġè¿":9230,"Ġì»´íĵ¨íĦ°":9231,"Ġfinish":9232,"Ġplanning":9233,"ëĨį":9234,"Ġë³´ê´Ģ":9235,"ĠíĻķì§Ħ":9236,"Ġíľ´ëĮĢ":9237,"Ġì§ĢíĤ¤":9238,"Ġìļ°ìĪĺ":9239,"ĠIll":9240,"Ġphotograph":9241,"Ġinvestigation":9242,"ê¹ĥ":9243,"Ġsurvey":9244,"Ġlimits":9245,"íĥĢë¯¼":9246,"Ġadding":9247,"arp":9248,"ersion":9249,"Ġê³łìĥĿ":9250,"ê·¸ëłĩ":9251,"Ġă":9252,"Ġkids":9253,"Ġê·¸ë¦°":9254,"ĠMany":9255,"Ġë°°ëĭ¬":9256,"ĠìłĦíĸĪ":9257,"ì²¨":9258,"usted":9259,"ouble":9260,"Ġquan":9261,"Ġvoltage":9262,"Ġtex":9263,"ìķĦì¹¨":9264,"ĠSy":9265,"Ġäºº":9266,"inity":9267,"ĠStreet":9268,"Ġìĸ´ëĸł":9269,"Ġgather":9270,"Ġmeasurement":9271,"',":9272,"pled":9273,"Ġshift":9274,"Ġwitness":9275,"Ġìľ¼ìĭ¤":9276,"ĠìĿ¸ëıĦ":9277,"Ġë§Īê°Ĳ":9278,"Ġê³łìĸĳìĿ´":9279,"Ġìĸ´ê¹¨":9280,"net":9281,"ĠÃł":9282,"Ġanalyzed":9283,"Ġrangle":9284,"greg":9285,"list":9286,"Ġestimate":9287,"Ġtransmission":9288,"ĠÃ¬":9289,"ilit":9290,"ĠER":9291,"Ġschools":9292,"ĠìĦłë°ľ":9293,"Ġdynamic":9294,"Ġë¡ľìļ´":9295,"Ġconcentrations":9296,"olar":9297,"antic":9298,"íĿ¡":9299,"Ġå¸":9300,"istory":9301,"QL":9302,"Ġpetition":9303,"ota":9304,"Ġì¶ľê·¼":9305,"Ġdescribe":9306,"Ġlayers":9307,"ĠUnion":9308,"Ġdream":9309,"Ġê³łìĨĮ":9310,"ĠES":9311,"ĠëĲĺê²Į":9312,"Ġinnov":9313,"Item":9314,"rite":9315,"cont":9316,"ĠáĨŀ":9317,"onent":9318,"ĠFace":9319,"ĠDC":9320,"Ġdriving":9321,"Ġê°Ģê¹Įìļ´":9322,"ĠBer":9323,"Ġpal":9324,"Ġbf":9325,"uate":9326,"ĠíĶĦëŀĳ":9327,"ĠMet":9328,"ĠÙ":9329,"Ġê°ĦìĭĿ":9330,"ename":9331,"Ġextrac":9332,"ĠíİĮ":9333,"ĠìķĪíĥĢ":9334,"Ġconfirmed":9335,"aming":9336,"Ġneuro":9337,"ĠìµľëĮĢíķľ":9338,"Ġdose":9339,"Ġstories":9340,"Ġdefense":9341,"Ġcompris":9342,"Ġcontinuous":9343,"Ġice":9344,"ãģĨ":9345,"Ġproperly":9346,"Ġìį¼":9347,"ĠCA":9348,"Ġæī":9349,"Ġìµľì¢ħ":9350,"Ġì¡°ìļ©":9351,"Ġattr":9352,"Ġfocused":9353,"Ġlatter":9354,"Ġì°¾ìķĦë³´":9355,"Ġìľłì¹ĺ":9356,"Ġchrom":9357,"Ġfluid":9358,"Ġìŀ¥ë©´":9359,"ãĥĪ":9360,"Ġíĳ":9361,"ìĿ´ê±´":9362,"Ġenhance":9363,"ĠCC":9364,"ĠìłĦíĨµ":9365,"Ġê¸°ë¦Ħ":9366,"Ġtun":9367,"Ġìŀĳìļ©":9368,"Now":9369,"Ġformula":9370,"Ġìĸ´ë¨¸ëĭĪ":9371,"Ġheader":9372,"Ġchanging":9373,"Ġì´Īëĵ±":9374,"ĠCON":9375,"ì¹´ìĺ¤":9376,"Ġì´Īê¸°":9377,"Ġ*-":9378,"ĠëĦĪë¬´ëĦĪë¬´":9379,"ĠDoc":9380,"Ġneighbor":9381,"ĠìĪĺë¦¬":9382,"çĶ":9383,"Ġì§Ģìłķ":9384,"Ġíİ¸ìĿĺ":9385,"ĠëĮĢíĺķ":9386,"ë³į":9387,"Ġmental":9388,"Ġhidden":9389,"Ġê³łíĨµ":9390,"Ġdiet":9391,"ĠBoth":9392,"ĠíĻĶìĿ´íĬ¸":9393,"TER":9394,"Ġtu":9395,"Ġìĭ¬ë¦¬":9396,"Ġìŀī":9397,"Ġassessment":9398,"Ġreferred":9399,"Ġëį®":9400,"asts":9401,"Ġmolecular":9402,"Ġteams":9403,"iat":9404,"Ġplane":9405,"Ġtraffic":9406,"ĠìķĦë¬´ë¦¬":9407,"ĠEngland":9408,"ĻëĭĪëĭ¤":9409,"ĠâĿ¤":9410,"ĠFin":9411,"comes":9412,"//":9413,"ëī´ìĬ¤":9414,"Ġparticles":9415,"Ġå±":9416,"\",":9417,"Ġguess":9418,"ĠDirect":9419,"Ġca":9420,"Ġextended":9421,"Ġ}$.":9422,"ĠìĤ¬ë§Ŀ":9423,"ascular":9424,"ĠìĪĺíĸī":9425,"ĠâĢĭâĢĭ":9426,"Ġìĥģê´Ģ":9427,"ĠìĿĺíķ´":9428,"ĠìĺĪìĤ°":9429,"iph":9430,"ë§Īì§Ģë§ī":9431,"Ġì¼ĢìĿ´íģ¬":9432,"ĠPy":9433,"Ġprol":9434,"rees":9435,"Ġassociation":9436,"ë§ĪìĬ¤":9437,"Ġdrink":9438,"Ġspeech":9439,"ighted":9440,"Ġìµľì´Ī":9441,"Ġsignals":9442,"ĠWork":9443,"ĠUN":9444,"QU":9445,"ĠBel":9446,"Ġelim":9447,"Ġê°ķëł¥":9448,"ĠìĦ¤ê³Ħ":9449,"Ġscene":9450,"ifying":9451,"ymbol":9452,"FA":9453,"Ġcamera":9454,"Ġdataset":9455,"Ġsymptoms":9456,"ĠìĪĺìļĶ":9457,"ìķĦì§ģ":9458,"Ġcloud":9459,"Ġpure":9460,"Ġowner":9461,"ĠëĮĢíķĻêµĲ":9462,"Ġå¾":9463,"ìĸ´ìłľ":9464,"Ġreserv":9465,"Ġjoint":9466,"âĸ":9467,"Ġsea":9468,"Ġgoals":9469,"Ġcitiz":9470,"Ġsentence":9471,"Ġêµ¬ì¶ķ":9472,"faces":9473,"Us":9474,"Ġsubset":9475,"ĠEs":9476,"Ġrepresented":9477,"Ġê¸°ì´Ī":9478,"Ġcircumstances":9479,"ĠCollege":9480,"ĠEq":9481,"Ġanimal":9482,"Ġ\\|":9483,"ched":9484,"Ġchosen":9485,"Ġparallel":9486,"ĠMA":9487,"Ġconfirm":9488,"ĠCle":9489,"ĠìĿ¼ìĸ´":9490,"Ġdismiss":9491,"ĠìĤ´ìķĦ":9492,"stream":9493,"Ġroute":9494,"ĠTexas":9495,"ĠìĻ¸êµŃìĿ¸":9496,"ĠÐ½":9497,"Ġëĭ¹ìĹ°íŀĪ":9498,"terior":9499,"Ġê³¼ìĿ¼":9500,"lus":9501,"Ġchurch":9502,"Ps":9503,"ĠëıĦìŀħ":9504,"Ġ^*":9505,"íĻķìĿ¸":9506,"ĠìŀĲìĤ°":9507,"ĠNews":9508,"Ġepsilon":9509,"ords":9510,"ĠGood":9511,"Ġë§ŀì¶Ķ":9512,"Ġkill":9513,"That":9514,"Ġachieved":9515,"Ġje":9516,"ĠìļĶìĨĮ":9517,"Ġìĭłëŀĳ":9518,"Ġë©Ī":9519,"antum":9520,"Ġ}}_":9521,"Our":9522,"ĠëįĶë¶Ī":9523,"ëłĽ":9524,"ĠíĪ¬ìĸ´":9525,"Ġå¯":9526,"ampions":9527,"Ġmainly":9528,"Ġì·¨íĸ¥":9529,"ĠíĮĮìĬ¤íĥĢ":9530,"Ġbranch":9531,"ĠSup":9532,"ya":9533,"ĠëĿĦ":9534,"Ġmask":9535,"Ġequivalent":9536,"apers":9537,"ander":9538,"Ġpowerful":9539,"ĠMem":9540,"Ġadvert":9541,"ĠìĺĪë»Ĳ":9542,"perty":9543,"xture":9544,"Ġfaith":9545,"Î±":9546,"True":9547,"Ġë¬´ìĦľ":9548,"Ġalleged":9549,"De":9550,"Ġlip":9551,"Ġpros":9552,"Ġkw":9553,"Ġscan":9554,"tification":9555,"Ġëĭµë³Ģ":9556,"Ġarrest":9557,"Ġíĥģ":9558,"ëĭ«":9559,"Ġcontained":9560,"Ġcup":9561,"Key":9562,"ĠProgram":9563,"Ġowners":9564,"iling":9565,"uman":9566,"umin":9567,"Ġshad":9568,"Ġì¤ĺìĦľ":9569,"Ġpages":9570,"ĠìĪĺìĽĲ":9571,"ĠPublic":9572,"ë¥¸ëĭ¤":9573,"ns":9574,"Ġjournal":9575,"Ġtechnical":9576,"Ġëĭ¦":9577,"ĠèĢ":9578,"Ġentered":9579,"Ġë¼Ī":9580,"ãĤĬ":9581,"Ġduration":9582,"âĢĿ":9583,"ĠFre":9584,"theless":9585,"Ġinvestment":9586,"ais":9587,"ãĥª":9588,"Ġexistence":9589,"ested":9590,"ìľĦì¹ĺ":9591,"Ġmanif":9592,"Ġelev":9593,"Ġabsence":9594,"rence":9595,"Ġêº¼ëĤ´":9596,"ansion":9597,"Ġíķ©ìĿĺ":9598,"Ġì£¼ì°¨ìŀ¥":9599,"Ġmostly":9600,"ëĮ":9601,"Ġmechanisms":9602,"coh":9603,"bitr":9604,"Ġconnect":9605,"Ġpromo":9606,"ĠSH":9607,"ĠëĤ´ëĤ´":9608,"Ġë©Ģë¦¬":9609,"ë°ĺê¸°":9610,"åľ":9611,"Ġenable":9612,"Ġcf":9613,"Ġeta":9614,"Ġexclud":9615,"umm":9616,"Ġìĥģìĥģ":9617,"Op":9618,"ATION":9619,"Ġsurgery":9620,"Ġíİ¸ë¦¬":9621,"Ġë¬¸ìŀĲ":9622,"Ġdrugs":9623,"Ġë¿Įë¦¬":9624,"ĠGermany":9625,"icial":9626,"ĠAddition":9627,"Ġê·Ģì°®":9628,"Ġì§ĢìĿ¸":9629,"Ġmel":9630,"Ġoccurs":9631,"Ġstrugg":9632,"ĠìŀĲëĿ¼":9633,"Ġminim":9634,"Ġbiggest":9635,"ãģ§":9636,"ports":9637,"ĠâĨĴ":9638,"Ġindicates":9639,"olf":9640,"zen":9641,"ĠìłĲê²Ģ":9642,"venue":9643,"Ġapprec":9644,"ĠìĿĺì§Ģ":9645,"Ġ\\])":9646,"Ġdoll":9647,"Ġbatter":9648,"ĠNO":9649,"ipl":9650,"Ġê³łì¶Ķ":9651,"ĠìĦ±ìłģ":9652,"ĠìŀĦëĮĢ":9653,"ĠSk":9654,"ĠíİĢ":9655,"ì¡°ê¸Ī":9656,"Ġì¶©ìłĦ":9657,"Ġapproaches":9658,"Ġëħ¸íĬ¸":9659,"Ġstrict":9660,"path":9661,"Ġê°ĲëıĻ":9662,"Ġ%.":9663,"Ġwants":9664,"icks":9665,"Ġraw":9666,"ĠModel":9667,"Ġinteractions":9668,"Ġ\"/":9669,"Ġë²Ħë¦°":9670,"icated":9671,"Ġneur":9672,"Ġwouldn":9673,"Ġëĭ¤ìļ´":9674,"Ġë¹Ħìĭ¸":9675,"Ġsymm":9676,"Ġinflamm":9677,"Ġdecreased":9678,"entic":9679,"ĠLou":9680,"rs":9681,"Ġclients":9682,"Ġê¸Īì§Ģ":9683,"Ġdra":9684,"ë°į":9685,"ĠVer":9686,"Ġíļ¨ìľ¨":9687,"Ġë¹Ħìľ¨":9688,"ì¶°":9689,"Ġì¼ĢìĿ´ìĬ¤":9690,"ĠåĬ":9691,"Ġextremely":9692,"ĩ¨":9693,"osc":9694,"Ġrepeated":9695,"Ġrul":9696,"tery":9697,"ĠCongress":9698,"Ġtick":9699,"Ġëķ¡":9700,"Ġpublish":9701,"ĠíĬ¸ë¦¬":9702,"Ġbeg":9703,"ë¬¼ë¡ł":9704,"ĠUsing":9705,"Ġhoriz":9706,"Ġë©ĭì§Ħ":9707,"ĠCouncil":9708,"Ġrepresentation":9709,"riage":9710,"Ġê°ľëħĲ":9711,"isd":9712,"ĠìĻł":9713,"ĠFinally":9714,"Ġmist":9715,"PT":9716,"Ġcelebr":9717,"íĪ":9718,"Ġbrowser":9719,"Ġìĭłìļ©":9720,"Ġspectrum":9721,"Ġinvolve":9722,"Ġê³łë¥´":9723,"ĠìĽ¨ëĶ©":9724,"ĠëıĻìĿ¼":9725,"ĠìĿ´ëķĮ":9726,"ĠChristian":9727,"Ġconstit":9728,"Ġê°ķíķľ":9729,"ĠâĢ²":9730,"ĠìĥĮ":9731,"Ġpossibility":9732,"Ġhelps":9733,"ilarly":9734,"Ġë¦¬ë·°":9735,"Ġcoverage":9736,"ĠëĤĺëĪł":9737,"Ġspect":9738,"ĠëıħìĿ¼":9739,"Ġthanks":9740,"ĠìķĦë¦Ħëĭ¤ìļ´":9741,"ë£©":9742,"Ġboy":9743,"ĠëĤŃ":9744,"ĠìĻĢìĿ¸":9745,"Ġë¯¸ìĪł":9746,"ĠPort":9747,"Ġfilms":9748,"EST":9749,"ĠOS":9750,"Ġê³łë§Ī":9751,"Ġíģ´ëŀĺ":9752,"Ġsmart":9753,"Ġaccep":9754,"Be":9755,"ãģĵ":9756,"Ġìĭ¤ìłģ":9757,"Ġanalyses":9758,"Ġê·¼ë¬´":9759,"Ġpsi":9760,"Form":9761,"Ġlisted":9762,"osoph":9763,"endant":9764,"Ġê·¸ë¦ĩ":9765,"Ġê¸į":9766,"ĠSmith":9767,"Ġê·ľìłķ":9768,"íİĺìĿ¸":9769,"Ġcolon":9770,"mas":9771,"Ġmovie":9772,"ãĥĥ":9773,"ellig":9774,"\\[":9775,"ĠFrance":9776,"Ġevaluate":9777,"Ġfuel":9778,"Ġì§ĢëĤĺê°Ģ":9779,"Ġnutr":9780,"Le":9781,"Ġì¶ķêµ¬":9782,"Ġruns":9783,"Ġë§¤ìļ´":9784,".<|":9785,"ses":9786,"Ġê³µê°Ĳ":9787,"Ġdetailed":9788,"Ġìķ¼ì±Ħ":9789,"Ġwhatever":9790,"Ġì²ŃëħĦ":9791,"íĮĶ":9792,"inations":9793,"ĠVol":9794,"ĠOmega":9795,"Ġëª¨ìķĦ":9796,"ĠBi":9797,"nam":9798,"Ġkilled":9799,"ĠìĪĻìĨĮ":9800,"li":9801,"ëªĩ":9802,"Ġexcellent":9803,"ĠPress":9804,"ĠBus":9805,"ĠìłĪì°¨":9806,"ĠìºĲë¦ŃíĦ°":9807,"Ġê³µê³µ":9808,"Ġprototype":9809,"ìĽĲëŀĺ":9810,"Ġíĺģìĭł":9811,"elines":9812,"well":9813,"Ġdecisions":9814,"Ġdirected":9815,"Ġë¬ĺ":9816,"ĠRiver":9817,"ĠíĤ¹":9818,"Set":9819,"Ġ*/":9820,"Ġminute":9821,"Ġpng":9822,"Ġpayment":9823,"Ġ.<|":9824,"Ġeconomy":9825,"FC":9826,"Ġë¹Ħíĸī":9827,"Ġprison":9828,"ĠìĿĺìĭĿ":9829,"Ġ'],":9830,"Ġchannels":9831,"ui":9832,"Ġìļ°ìľł":9833,"ĠAC":9834,"Ġ---------":9835,"ĠíĻĶë©´":9836,"Ġmixed":9837,"ĠìĽĶëĵľ":9838,"å®":9839,"ĠìķĦê°Ģ":9840,"ĠKore":9841,"Ġplasma":9842,"ãĤĤ":9843,"Ġrelationships":9844,"ĠìĿ´ëģĮ":9845,"ĠëĤĺíĥĢëĤ¬":9846,"ĠìĿ´ìģľ":9847,"ĠìĪĺë¶Ħ":9848,"Ġmir":9849,"ĠWestern":9850,"ĠìĹ¬ì£¼":9851,"ĠSU":9852,"Ġì°¸ê°Ģ":9853,"Ġvelocity":9854,"Ġpositions":9855,"ĠìĤŃ":9856,"ĠEC":9857,"Ġíķĺê³ł":9858,"Ġëĭ«":9859,"Ġë¬´ëĮĢ":9860,"Ġauthority":9861,"íĶ¼ìĬ¤":9862,"Ġabsolute":9863,"Ġíķĺìļ°ìĬ¤":9864,"Ġsevere":9865,"Ġelectric":9866,"Ġtasks":9867,"Ġdirector":9868,"Ġton":9869,"Ġtypical":9870,"orrow":9871,"########":9872,"Ġbillion":9873,"íĦ°ë¦¬":9874,"ĠíĺķìĦ±":9875,"Ġhusband":9876,"ĠëģĦ":9877,"oration":9878,"Ġreact":9879,"Ġclimate":9880,"íħĲì¸ł":9881,"ĠÃ¥":9882,"Ġê³¨íĶĦ":9883,"ê¼¬":9884,"ĠPL":9885,"Ġìĭłë¢°":9886,"Ġminimal":9887,"Ġguaran":9888,"ĠãĢģ":9889,"ĠìĽĮëĤĻ":9890,"Ġcond":9891,"ĠìµľìĦł":9892,"Up":9893,"ĠëĤĺê°Ī":9894,"Ġdoubt":9895,"\">":9896,"Ġcollege":9897,"Ġìĸ¸ë¡ł":9898,"ìłĿ":9899,"Ġëĸ¡ë³¶ìĿ´":9900,"Ġcriteria":9901,"Ġinstalled":9902,"Ġship":9903,"ĠAssociation":9904,"Ġdepending":9905,"ìĿĢíĸī":9906,"raz":9907,"Ġiter":9908,"Ġìĥģì²ĺ":9909,"Ġvirtual":9910,"Ġstrategies":9911,"ils":9912,"Ġê·ĢìĹ¬ìļ´":9913,"ura":9914,"ìĽħ":9915,"ĠíĴįê²½":9916,"know":9917,"ols":9918,"Ġê°¤":9919,"Ġê·¸ëıĻìķĪ":9920,"Ġprices":9921,"Ġdepends":9922,"Ġoptimal":9923,"ĠPost":9924,"Ġcyto":9925,"ĠAustralia":9926,"ìį¹":9927,"State":9928,"Ġdocuments":9929,"Ġsale":9930,"ĠMat":9931,"ulti":9932,"apped":9933,"ĠHD":9934,"pload":9935,"ĠíĿ°":9936,"Ġtail":9937,"Ġterminal":9938,"Ġê³ĦìĤ°":9939,"Ġye":9940,"Ġìļ°ìĬ¹":9941,"ëĸ¼":9942,"ì²«":9943,"Ġadvanced":9944,"Ġê³¼ìłľ":9945,"Ġpolicies":9946,"Ġinvestigated":9947,"place":9948,"Ġmodified":9949,"Ġster":9950,"Ġtopic":9951,"Ġì¶ķìłľ":9952,"ĠëĤĺë¨¸ì§Ģ":9953,"ria":9954,"Ġtestim":9955,"ĠìĪĺìĺģ":9956,"ĠRob":9957,"íĿĲ":9958,"Ġlearned":9959,"Ġlayout":9960,"Ġjudge":9961,"Ġsimpl":9962,"ëª½":9963,"Ġì¥Ĳ":9964,"While":9965,"ĠON":9966,"ĠìĭľíĤ¬":9967,"Ġì¡¸ìĹħ":9968,"ancing":9969,"Ŀį":9970,"ĠëĮĢíķľë¯¼êµŃ":9971,"Ġcollabor":9972,"Ġsigned":9973,"Ġtrigger":9974,"Ġinher":9975,"ìłĢê¸°":9976,"Ġéĩ":9977,"state":9978,"Ġíķ©ê²©":9979,"ĠìĨĮíĻĶ":9980,"Ġrecover":9981,"áĥ":9982,"ĠìķĪìĭ¬":9983,"ĠìĹħê³Ħ":9984,"ĠìĪ²":9985,"ĠInstitute":9986,"Ġantib":9987,"Ġìĸ´ëł¤ìĽĢ":9988,"Ġboundary":9989,"ĠìķĻ":9990,"ĠëĲľëĭ¤ë©´":9991,"ĠField":9992,"Ġê³°":9993,"ĠíĨ¡":9994,"Ġlinked":9995,"RS":9996,"ĠíĺĳìĿĺ":9997,"ê°ľìĿ¸":9998,"Ġì£¼ê°Ģ":9999,"Ġhers":10000,"ĠìĿ¼ìľ¼":10001,"Ġsuitable":10002,"ini":10003,"ĠìĿ¼ê¹Į":10004,"ĠDevelop":10005,"ĠìĿ¼ê¸°":10006,"DE":10007,"ê·¸ëłĩê²Į":10008,"Ġë§ĪìĤ¬ì§Ģ":10009,"Ġuncertain":10010,"Ġ×":10011,"Calculate":10012,"ita":10013,"tel":10014,"ĠíĨµíķľ":10015,"turb":10016,"ìķĦì£¼":10017,"Ġëħ¼ìĿĺ":10018,"Ġdenied":10019,"Man":10020,"ĠíıīíĻĶ":10021,"Ġmessages":10022,"Ġê±´ì¶ķ":10023,"ĠTer":10024,"Ġexamined":10025,"itors":10026,"ĠMart":10027,"Ġthreshold":10028,"ulted":10029,"ëŀĦ":10030,"ample":10031,"Ġcompens":10032,"fication":10033,"Ġintensity":10034,"ĠBay":10035,"ĠìłĦìļ©":10036,"ãģĭ":10037,"Ġëº":10038,"Ġsurvival":10039,"ĠEU":10040,"ë§ĽìŀĪ":10041,"Ġcs":10042,"ĠChurch":10043,"trans":10044,"Ġpeace":10045,"Ġìĭľì²Ń":10046,"ĠìĮ¤":10047,"Ġelectronic":10048,"ĠëĶ©":10049,"ĠçĽ":10050,"Ġì¡°ëªħ":10051,"ĠBook":10052,"Ġoutcome":10053,"File":10054,"Ġevaluated":10055,"Ġnom":10056,"aneous":10057,"Ġreality":10058,"Ġsi":10059,"Ġradius":10060,"edy":10061,"uts":10062,"Ġanc":10063,"ë¬µ":10064,"ĠStat":10065,"Ġstandards":10066,"TC":10067,"Ġdesired":10068,"Ġeat":10069,"Ġpolar":10070,"Ġthank":10071,"ĠâĪĪ":10072,"Ġexcess":10073,"Ġhos":10074,"va":10075,"Ġê°Ģë³į":10076,"Ġì§ģìĹħ":10077,"Ġaspects":10078,"Ġìłľì¶ľ":10079,"Ġìĭłì²´":10080,"Equal":10081,"ìĿį":10082,"Ġmouse":10083,"Ġì°½ìĹħ":10084,"ĠëĤ¼":10085,"ĠãģĻ":10086,"Ġofficer":10087,"Ġsegment":10088,"Ġdiagnosis":10089,"Ġì¶©ê²©":10090,"eric":10091,"Ġemployed":10092,"Some":10093,"Ġë¹ĦíĥĢë¯¼":10094,"Ġeasier":10095,"Ġëª¨ìŀĲ":10096,"ĠLeague":10097,"Ġì£¼ë°©":10098,"ëŀĢëĭ¤":10099,"Ġdeploy":10100,"Ġbone":10101,"ticip":10102,"oul":10103,"{\"":10104,"ĠGeorge":10105,"ãģĮ":10106,"ĠíģĲ":10107,"Ġgar":10108,"Ġchallenges":10109,"ulating":10110,"Ġmarketing":10111,"Ġê¸°íļį":10112,"Ġdistinct":10113,"ĠíĮħ":10114,"cles":10115,"ĠíĬ¹ìĦ±":10116,"Ġìļ¸ìĤ°":10117,"Ġæ°":10118,"ì§ĢíĦ¸":10119,"Ġìĭľë¦¬ì¦Ī":10120,"asure":10121,"ĠìĪĺìłķ":10122,"Ġvariation":10123,"ĠDiv":10124,"Ġëĵľëł¤ìļĶ":10125,"udget":10126,"ìĥ¤":10127,"Ġdelete":10128,"itis":10129,"ĠëĪĦêµ°ê°Ģ":10130,"Ġstanding":10131,"ĠìıŁ":10132,"Ġconclusion":10133,"Ġê°Ģê¹ĮìĿ´":10134,"Ġcurve":10135,"Ġscores":10136,"Ġunivers":10137,"ĠMex":10138,"Ġpercentage":10139,"ĠìĹ°íķ©":10140,"ĠSing":10141,"Ġfinished":10142,"Ġìľ¼ë¡ľë¶ĢíĦ°":10143,"Ġ*)":10144,"Ġìĭłê·ľ":10145,"Ġfraction":10146,"ãģ«":10147,"ĠíĽĦíļĮ":10148,"ĠGamma":10149,"ymph":10150,"Ġjobs":10151,"Ġideal":10152,"ë¦¬íĭ°":10153,"Ġfilled":10154,"bal":10155,"ĠConn":10156,"Ġinterests":10157,"~~~":10158,"Ġê¾":10159,"ĠìĬ¤íĭ°":10160,"Ġë¸Ķë£¨":10161,"Ġconstruct":10162,"Ġdifferenti":10163,"Ġbug":10164,"Ġconsent":10165,"ĠJapanese":10166,"Ġleaving":10167,"Ġë¶Ģë¬¸":10168,"ao":10169,"Ġì¦Ĳê±°ìļ´":10170,"Ġadministr":10171,"Ġnuclear":10172,"Ġmorph":10173,"Ġsensitive":10174,"Ġtri":10175,"Ġì£¼ëª©":10176,"Ġìĺ¤ë¥¸ìª½":10177,"ĠCN":10178,"ĠìłĢëŁ°":10179,"Ġë¶ĢëĵľëŁ½":10180,"âĪĴ":10181,"ĠArch":10182,"Ġìĺ¤ë¦¬":10183,"ĠHall":10184,"ì©į":10185,"Ġìĭ¬ê°ģ":10186,"ĠHel":10187,"ê´´":10188,"Ġë°ĶìĿ´ëŁ¬ìĬ¤":10189,"Ġpractices":10190,"ĠBre":10191,"ĠìĨĲìĥģ":10192,"Ġtox":10193,"Ġê²Ł":10194,"ìĹ¬ìĦľ":10195,"ĠìĪĺíķĻ":10196,"Ġleaves":10197,"Ġìĸ¸ê¸ī":10198,"Ġinterval":10199,"Ġacadem":10200,"Ġcommunities":10201,"ĠMary":10202,"Ġagency":10203,"Ġgreatest":10204,"Ġexperienced":10205,"ĠìĽĢì§ģìĿ´":10206,"Ġê²Įìĭľ":10207,"Ġallowing":10208,"cious":10209,"Ġ'(":10210,"Ġsubstrate":10211,"Ġì¢ħìĿ´":10212,"ĠæĶ":10213,"Ġeventually":10214,"Ġì¦Ĳê¸¸":10215,"Ġjav":10216,"Ġë§ĮëĤľ":10217,"Ġarbitr":10218,"ĠPs":10219,"ĠJes":10220,"ĠíĽĮ":10221,"ĠíĶ¼ê³¤":10222,"Ġkid":10223,"Ġê²°ìłľ":10224,"ë°ĶìĿ¼":10225,"Ġê¸°ê³Ħ":10226,"Ġstars":10227,"Ġdiab":10228,"Ġå½":10229,"Ġ\"\\":10230,"ĠTur":10231,"ĠPR":10232,"Ġìº¡":10233,"Ġhelped":10234,"ashion":10235,"iate":10236,"Ġweap":10237,"Ġsections":10238,"Ġë¹Ħë°Ģ":10239,"ìĪ¨":10240,"Ġë©į":10241,"ĠAuth":10242,"Ġdaughter":10243,"ĠOnce":10244,"Ġremained":10245,"Ġpix":10246,"Ġë°Ķíĥķ":10247,"Ġwindows":10248,"uz":10249,"pted":10250,"ĠëĦĲ":10251,"ĠìłģìłĪ":10252,"ĠAlex":10253,"ëĿ¼ìĦľ":10254,"FL":10255,"Ġìĸ¸ìłľëĤĺ":10256,"Ġë§ĳ":10257,"ĠUse":10258,"ĠNE":10259,"ĠInternet":10260,"ĠNa":10261,"ĠíķľìŀĶ":10262,"Ġseconds":10263,"Ġleader":10264,"ĠStar":10265,"Ġë¶Īë¦¬":10266,"ena":10267,"ĠNC":10268,"Ġíĳľìĭľ":10269,"Ġexplicit":10270,"Ġwash":10271,"Ġbow":10272,"ĠìĻ¼ìª½":10273,"Ġë¶Ħë¦¬":10274,"Ġëª½":10275,"Ġ=(":10276,"Ġmotiv":10277,"Ġmeant":10278,"ĠìĹĳ":10279,"ë©ĺ":10280,"Ġoffset":10281,"ĠWil":10282,"tructure":10283,"Ġâĸ³":10284,"Ġmolecules":10285,"Ġåĩ":10286,"Ġannual":10287,"ĠMil":10288,"ĠBM":10289,"íģ¬ë¦¼":10290,"Ġdispl":10291,"ĠìłĦë°ĺ":10292,"Ġgal":10293,"Ġarticles":10294,"Ġfinite":10295,"Ġobjective":10296,"Ġnative":10297,"ĠGold":10298,"ĠëŀĦ":10299,"Ġë°°ê²½":10300,"Exp":10301,"ìłĦê±°":10302,"elcome":10303,"Ġcriminal":10304,"ĠíĮĮíĭ°":10305,"Ġê·¸ëł¤":10306,"ĠìķĦëĭĮê°Ģ":10307,"uries":10308,"Element":10309,"Ġmuscle":10310,"ì§Ģìĸ´":10311,"epti":10312,"ìłķë¶Ģ":10313,"Ġìĭłë°ľ":10314,"Ġìĺ¬ë¦¼":10315,"Ġintellig":10316,"Ġspecified":10317,"asp":10318,"Ġrecovery":10319,"Ġì¦Ĳê±°":10320,"Ġpip":10321,"Ġreceiving":10322,"-\\":10323,"ĠGreat":10324,"Ġì§Ħì¶ľ":10325,"Ġìłľê¸°":10326,"Ġíķĳíģ¬":10327,"ells":10328,"ĠFacebook":10329,"ĠFil":10330,"ìħĢ":10331,"Ġì»¤íĶĮ":10332,"jection":10333,"Ġzone":10334,"hips":10335,"Ġphil":10336,"ëĤĺëĿ¼":10337,"Ġpartner":10338,"ĠëıĮëł¤":10339,"ë¹¨":10340,"ĠLog":10341,"ãĥ©":10342,"Ġíĥĵ":10343,"ĠìĿĺìŀĲ":10344,"ĠEN":10345,"rich":10346,"ìĿ´ê±°":10347,"íķľëĭ¤":10348,"pat":10349,"Ġì£¼íĸī":10350,"ĠìŀĲëħĢ":10351,"ê°Īë¹Ħ":10352,"ĠFound":10353,"Ġbm":10354,"Ġiron":10355,"EE":10356,"ĠìĭĿë¬¼":10357,"chem":10358,"However":10359,"phone":10360,"ĠIV":10361,"ìĸĢ":10362,"iven":10363,"ĠëĮĢëĭ¨":10364,"phi":10365,"Ġgly":10366,"Ġì£¼ìĿ¸ê³µ":10367,"ëĿ¼ëıĦ":10368,"ads":10369,"ĠìĬ¤íĮĮ":10370,"ĠLike":10371,"ĠOnly":10372,"Ġpossibly":10373,"ĠãģķãĤĮ":10374,"Ġsand":10375,"Ġsubsequent":10376,"Ġdivers":10377,"Ġkern":10378,"Ġstability":10379,"ango":10380,"Ġë§ĪëĬĺ":10381,"Ġnavig":10382,"Ġfabric":10383,"ĠíĥĢìŀħ":10384,"Ġbuffer":10385,"ĠíĶĦëŀĳìĬ¤":10386,"ypes":10387,"Ġè¨":10388,"Ġprocedures":10389,"Ġdiscrim":10390,"ĠLife":10391,"Ġstarts":10392,"Ġvote":10393,"ĠQue":10394,"Ġê·ľìłľ":10395,"Ġê·¸ìłĢ":10396,"Ġë¦½":10397,"Ġì¤ĳìĨĮ":10398,"ĠëĪĦë¦¬":10399,"ĠLord":10400,"ĠíĨµíĻĶ":10401,"ĠëıĦìĦľ":10402,"Ġìĺ¤ìĿ¼":10403,"Ġsector":10404,"Ġíĩ´ê·¼":10405,"ĠëĬĶëĭ¤ê³ł":10406,"Ġgenetic":10407,"ĠBas":10408,"Ġë¯¸ìĦ¸":10409,"Ġunknown":10410,"Ġì¶ľì²ĺ":10411,"Ð´":10412,"Ġobservations":10413,"Ġì¤ĳê³łì°¨":10414,"Ab":10415,"sl":10416,"ĠRad":10417,"Ġmembrane":10418,"Ġexclus":10419,"Ġindeed":10420,"ĠìķĦëĭĲê¹Į":10421,"Ġmand":10422,"Ġparse":10423,"Ġholds":10424,"Ġadvance":10425,"anes":10426,"ĠíĶ½":10427,"ĠìĨĮìĦ¤":10428,"elif":10429,"ĠHy":10430,"ä»":10431,"Ġing":10432,"Ġì°ľ":10433,"Ġtigh":10434,"Ġê·¼ë¡ľ":10435,"ĠìĿĺìĭ¬":10436,"hol":10437,"ĠìħĶëıĦ":10438,"ĠìĿ¸ë¬¼":10439,"Ġnumerous":10440,"Ġgrant":10441,"Ġë³´ìĥģ":10442,"Ġê³łìļ©":10443,"Ġì§Ħìĭ¬":10444,"hi":10445,"Ġahead":10446,"Ġcash":10447,"ĠName":10448,"ìłĿíĬ¸":10449,"iter":10450,"Ġíĥ±":10451,"ë©į":10452,"Ġcris":10453,"ĠìķĦëĭĻëĭĪëĭ¤":10454,"alysis":10455,"dden":10456,"áħ³":10457,"Ġcontem":10458,"ĠSto":10459,"ĠìĬ¤íĨłë¦¬":10460,"Ġgluc":10461,"Ġtheore":10462,"ĠAnn":10463,"ĠìĹ´ë¦¬":10464,"Ġë³¸ë¶Ģ":10465,"Ġì¤ĦìĿ´":10466,"ums":10467,"Ġë²ħ":10468,"ĠMichael":10469,"Ġvare":10470,"ĠCI":10471,"Ġnotes":10472,"Ġconsidering":10473,"Ġconfidence":10474,"ĠTheir":10475,"Ġë°Ķê¿Ķ":10476,"Ġ\\'":10477,"Ġpregn":10478,"Ġê²ī":10479,"uing":10480,"Ġextract":10481,"ĠíĴįë¶Ģ":10482,"ĠScience":10483,"Ġjurisd":10484,"ì¹¼":10485,"ĠMill":10486,"Ġoutcomes":10487,"Ġrough":10488,"ĠJos":10489,"Ġheter":10490,"Ġë¹ĦíĮĲ":10491,"ulin":10492,"Ġsecure":10493,"Ġexplan":10494,"Ġtrees":10495,"Ġissued":10496,"Ġê¸įìłķ":10497,"oken":10498,"iliar":10499,"Ġfet":10500,"Ġmaps":10501,"Ġêµ½":10502,"Ġê²ĢíĨł":10503,"Ġconsumption":10504,"ĠìĦ±ê³¼":10505,"Ġdriven":10506,"ĠFlor":10507,"Ġë³¸ëĭ¤":10508,"Ġphenomen":10509,"Ġappar":10510,"Ġ'\\":10511,"íģĲ":10512,"ĠíĿĺëŁ¬":10513,"íĹĮ":10514,"ĠFA":10515,"color":10516,"ci":10517,"ë°¤":10518,"Ġstrongly":10519,"Ġio":10520,"ÑģÑĤ":10521,"ĠCommit":10522,"íŀĺ":10523,"Ġê³łê°ľ":10524,"arden":10525,"Ġimprovement":10526,"Ġæĺ¯":10527,"Ġoperatorname":10528,"Ġoxy":10529,"van":10530,"ĠWH":10531,"itions":10532,"Ġregulation":10533,"Ġvarepsilon":10534,"·Ķ":10535,"ĠëķĢ":10536,"Ġ*~":10537,"ê¸°ìĹħ":10538,"Bu":10539,"Ġadult":10540,"Ġdirectory":10541,"FT":10542,"ĠBal":10543,"ëł¬":10544,"ĠPA":10545,"Ġbright":10546,"ĠêµĲíĻĺ":10547,"Ġaccurate":10548,"tile":10549,"ĠTR":10550,"Ġì¶ľìĭł":10551,"arks":10552,"Ð¼":10553,"Ġvacc":10554,"Ġfourth":10555,"ĠçĻ":10556,"Ġshoot":10557,"ĠFore":10558,"ê¼Ī":10559,"ĠëģĿëĤ´":10560,"Ġê·¸ë§Įíģ¼":10561,"ĠìłĦëĤł":10562,"ìŀİ":10563,"pi":10564,"ĠìķĦê¹Į":10565,"ĠMethod":10566,"ĠGre":10567,"Ġremainder":10568,"Ġë¡¤":10569,"ĠAfrica":10570,"Ġcultural":10571,"ĠëŁ¬ìĭľìķĦ":10572,"Ġhappens":10573,"Ġgate":10574,"ĠProf":10575,"otal":10576,"Ġwaiting":10577,"ett":10578,"Ġrain":10579,"ĠSupreme":10580,"OV":10581,"essor":10582,"Ġspend":10583,"Ġaren":10584,"Ġdistributed":10585,"ë²ĦìĬ¤":10586,"emic":10587,"ĠRNA":10588,"dis":10589,"Ġë¹ħ":10590,"Ġsetup":10591,"ĠìĹĩ":10592,"../../":10593,"Ġofficers":10594,"ĠìĹ°ìŀ¥":10595,"GA":10596,"Ġalcoh":10597,"Ġíķ´ì§Ħ":10598,"Ġìĭ¬íķĺ":10599,"ented":10600,"ĠìĦłë³´":10601,"ĠìĿ´ìĸ´ì§Ģ":10602,"Ġvertical":10603,"ìĤ°ë¬¼":10604,"Ġspatial":10605,"oking":10606,"ĠSpr":10607,"ĠëĨĪ":10608,"ĠìĭłëĤĺ":10609,"Ġsudden":10610,"ĠìĮį":10611,"Ġknows":10612,"lication":10613,"ìĩĦ":10614,"ĠìĿ´ëŀĢ":10615,"íĻĶìłĲ":10616,"Ġquarter":10617,"ĠìĻĦíĻĶ":10618,"False":10619,"Ġìħĺ":10620,"Bl":10621,"ĠìŀĲìĽĲ":10622,"Ġìŀħë§Ľ":10623,"ĠPart":10624,"Ġìłĳê·¼":10625,"Ġfaster":10626,"ĠëĥĪ":10627,"Ġrub":10628,"acted":10629,"Ġbrother":10630,"Ġmouth":10631,"ortunately":10632,"orders":10633,"Ġfrequently":10634,"Ġconcerns":10635,"Ġstreet":10636,"Î¿":10637,"ĠAtt":10638,"Ġentit":10639,"ĠCM":10640,"Ġformal":10641,"Ġtestimony":10642,"Ġsimulation":10643,"ĠëĭĪëĭ¹":10644,"ìĺ¤ëŀľë§Į":10645,"Ġìĸ´ì©Ķ":10646,"Ġtf":10647,"istor":10648,"Ġreti":10649,"Ġappearance":10650,"Ġfavorite":10651,"Ġconsult":10652,"Ġran":10653,"Ġequations":10654,"ĠWhere":10655,"Ġfeedback":10656,"Ġë©´ìĹŃ":10657,"Ġsubstantial":10658,"åĪ":10659,"Ġlived":10660,"Ġcrime":10661,"ĠMad":10662,"tenance":10663,"ĠëĮĢë°ķ":10664,"ĠFranc":10665,"Ġorders":10666,"Ġ\\*":10667,"Ġsensor":10668,"DS":10669,"ĠëĤ¨ê¸°":10670,"Ġinternet":10671,"ê°Ģê²©":10672,"Ġdisch":10673,"$.":10674,"ĠìĥĿê°ģëĤĺ":10675,"Ġwidely":10676,"ê¼Ń":10677,"ĠValue":10678,"Ġretain":10679,"ĠAI":10680,"ĠíĶĦë¦¬ë¯¸":10681,"agon":10682,"Ġagreed":10683,"ĠëıĻìĺģìĥģ":10684,"ĠåĨ":10685,"Ġãģª":10686,"itable":10687,"ĠParty":10688,"Ġì¢ģ":10689,"ĠDate":10690,"Ġfreedom":10691,"íĨ¤":10692,"ĠDM":10693,"Ġmanaged":10694,"Ġeditor":10695,"Ġshif":10696,"ë¡¤":10697,"aven":10698,"ora":10699,"Ġadvice":10700,"Ġìĭ¬ìĤ¬":10701,"estic":10702,"Ġpoll":10703,"ĠKey":10704,"ĠëĶĶì§ĢíĦ¸":10705,"ĠGM":10706,"Ġê¸´ìŀ¥":10707,"Ġdesc":10708,"alian":10709,"ëĭŃ":10710,"Ġseeing":10711,"Ġcompounds":10712,"illa":10713,"Ġë²Ķì£Ħ":10714,"Ġcrow":10715,"Ġê³łìłķ":10716,"Ġdin":10717,"avity":10718,"Ġsports":10719,"Äĥ":10720,"Ġinteger":10721,"ĠGovernment":10722,"DP":10723,"Ġê³µë¬´ìĽĲ":10724,"Ġoxid":10725,"Ġreceptor":10726,"Ġofficials":10727,"ëĭĪìĬ¤":10728,"Ġë³¼ê¹Į":10729,"Ġdetect":10730,"Ġteaching":10731,"onday":10732,"ĠìľłíĨµ":10733,"ĠClin":10734,"mod":10735,"rig":10736,"Ġê°Ģë¦¬":10737,"Ġnarrow":10738,"ĠìĨĮìĨį":10739,"ĠNOT":10740,"Ġsole":10741,"ĠìĭľìłĲ":10742,"ĠDi":10743,"oval":10744,"kins":10745,"Ġassets":10746,"ston":10747,"Ġë§ĪìĿ´":10748,"Ġcharged":10749,"iber":10750,"ĠìĭłìĦł":10751,"ĠëĤĺìĺ¨ëĭ¤":10752,"Ġrelief":10753,"ĠëĬĺìĸ´ëĤĺ":10754,"Ġvisible":10755,"Ġêµ¬ì²´":10756,"Ġextend":10757,"Ġum":10758,"ĠAngel":10759,"ĠÃ«":10760,"ĠìŀĲê²©ì¦Ŀ":10761,"Ġaccord":10762,"Ġmodules":10763,"Ġëĳ¥":10764,"uits":10765,"Ġë§¤ìĪĺ":10766,"Ġmission":10767,"ĠSl":10768,"Ġbeam":10769,"iples":10770,"')":10771,"Ġìŀħì£¼":10772,"Ġgap":10773,"ĠMC":10774,"Ġthermal":10775,"ĠYear":10776,"kin":10777,"ÐµÐ½":10778,"Ġsequences":10779,"íģ°":10780,"*/":10781,"Ġê°Ŀ":10782,"Ġlocations":10783,"Ġìĺ¤ëŀľ":10784,"Ġcompetition":10785,"Ġcapable":10786,"Ġdestroy":10787,"ĠPlaintiff":10788,"Ġë§ĪíĬ¸":10789,"ê²¹ìĤ´":10790,"ĠSol":10791,"Ġremote":10792,"ontal":10793,"akers":10794,"Ġê²¹":10795,"Ġjoined":10796,"atal":10797,"tube":10798,"Ġëĭ¿":10799,"Ġìŀ¥ì¹ĺ":10800,"eal":10801,"ĠSN":10802,"ĠìĿ´ê±¸":10803,"ĠRussian":10804,"ĠTor":10805,"ĠWhich":10806,"tood":10807,"ĠìķĦíĬ¸":10808,"Ġì¡°ì°¨":10809,"Ġforth":10810,"ĠEr":10811,"Ġquantum":10812,"rant":10813,"Ġsensitivity":10814,"ÙĨ":10815,"ëĭ¤ë³´":10816,"Ġoccasion":10817,"ERS":10818,"Ġreligious":10819,"Ġexperiences":10820,"Ġmarked":10821,"ĠëĵľëĿ¼ìĿ´":10822,"Ġì£¼ëıĦ":10823,"ĠìķĦìĿ´íħľ":10824,"ĠpH":10825,"Ġapparatus":10826,"Ġexpansion":10827,"ìģ¨":10828,"Ġìľ¼ëł¤ê³ł":10829,"Ġì°¨ìĽĲ":10830,"ĠìĨĮíĨµ":10831,"ascript":10832,"Sub":10833,"ĠÌģ":10834,"Ġnine":10835,"ĠëģĪ":10836,"Ġaccel":10837,"Ġunderlying":10838,"ĠìĻĦìłĦíŀĪ":10839,"Ġphotos":10840,"anish":10841,"ìĹ°íŀĪ":10842,"Ġbelieved":10843,"Ġì¦Ĳê²ģ":10844,"ĠMax":10845,"Ġë³Ģíĺ¸ìĤ¬":10846,"ìĿ´ê²ĥ":10847,"$(":10848,"ĠìĪĺìĥģ":10849,"Ġaut":10850,"ìħī":10851,"Ġaccum":10852,"Ġë§ģíģ¬":10853,"Ġplays":10854,"Ġíķľì°¸":10855,"Ġray":10856,"ĠSpe":10857,"Ġams":10858,"íĮ¡":10859,"Ġìł¸ìĦľ":10860,"Ġ%;":10861,"Ġoverl":10862,"amental":10863,"Ġalter":10864,"Ġforced":10865,"Ġchi":10866,"Ġscatter":10867,"Ġparticle":10868,"ĠLeg":10869,"Ġë°ĽìķĦëĵ¤":10870,"Ġê°ľìłķ":10871,"Ġmurder":10872,"Ġunp":10873,"ĠëĮĢëĭµ":10874,"ĠAv":10875,"ĠëĮĢíķĺ":10876,"Ġoblig":10877,"Ġíķ¸ëĵľíı°":10878,"Ġ').":10879,"Ġseek":10880,"Ġìŀ¥ì°©":10881,"Ġë³´ê±´":10882,"Ġasser":10883,"Ġå¼":10884,"Ġstick":10885,"Ġthousands":10886,"what":10887,"Ġoverline":10888,"ĠìĽĥìĿĮ":10889,"Ġwed":10890,"ponse":10891,"ĠLin":10892,"Ġherself":10893,"Ġordered":10894,"Ġíķľíİ¸":10895,"Ġëĭ¹ìŀ¥":10896,"wide":10897,"cing":10898,"Ġë³´ëĥĪ":10899,"itig":10900,"ĠìĹ°ì¶ľ":10901,"ĠíĶĦë¡ľìłĿíĬ¸":10902,"ĠìŃī":10903,"etes":10904,"ĠìĿĢì§Ģ":10905,"ë¡ľìļ´":10906,"ĠJS":10907,"HT":10908,"Ġìľ¼ìħ¨":10909,"Ġìĸĩ":10910,"Event":10911,"ĠìĨĮê¸Ī":10912,"Object":10913,"Ġended":10914,"Ġscientific":10915,"Ġê±°ì³Ĳ":10916,"Ġrecip":10917,"BI":10918,"Ġarms":10919,"Ġìĥĺ":10920,"ĠíĻķìĤ°":10921,"ĠRoy":10922,"Ġindepend":10923,"],":10924,"Ġìŀ¬ìĤ°":10925,"Ġãģĭ":10926,"ĠFriday":10927,"ãĥ¼ãĤ":10928,"Ġ;;;":10929,"Ġrelax":10930,"Ġsheet":10931,"Ġwaste":10932,"thetic":10933,"Ġëģ¼ë¦¬":10934,"Ġinvestigate":10935,"Ġopportunities":10936,"unic":10937,"Ġconsists":10938,"Ġstatements":10939,"Ġì¹¸":10940,"Ġbes":10941,"Ġcandidate":10942,"ossible":10943,"Ġkwargs":10944,"Ġê¼½":10945,"Ġsho":10946,"Ġstro":10947,"Ġëİ":10948,"Ġëį°ë¦¬":10949,"ĠåĽ½":10950,"Ġéĸ":10951,"Ġë§¤íĬ¸":10952,"Ġstrain":10953,"According":10954,"Ġexposed":10955,"aud":10956,"mic":10957,"Ġshut":10958,"Ġorganizations":10959,"ĠJesus":10960,"Ġbecoming":10961,"ìĤ¬ëŀĳ":10962,"BM":10963,"Ġë³´ìĿ¼":10964,"Ġdiscovered":10965,"kit":10966,"ĠíĿ¡ìĪĺ":10967,"ĠæĻ":10968,"ĠìĬ¤ë§ĪíĬ¸íı°":10969,"Ġê³µìłķ":10970,"gers":10971,"Ġposts":10972,"vate":10973,"uls":10974,"tables":10975,"Ġrecognized":10976,"ĠPo":10977,"Ġìĸ¸ìĸ´":10978,"ĠëĤĺìĺ":10979,"Ġdiseases":10980,"Ġpara":10981,"Ġupdated":10982,"Ġcommonly":10983,"ĠëĮĢì¶©":10984,"ĠHome":10985,"Ġcolumns":10986,"Ġattorney":10987,"Ġbtn":10988,"Ġfacilit":10989,"ĠíħĮìĬ¤íĬ¸":10990,"ĠOffice":10991,"Ġchronic":10992,"ĠIts":10993,"Ġìķ¨":10994,"Ġdistingu":10995,"ìŀħëĭĪëĭ¤":10996,"ĠBack":10997,"Ġcompreh":10998,"Ġaccepted":10999,"ESS":11000,"tub":11001,"ëĺ":11002,"åħ":11003,"Ġmanage":11004,"íĬľë¸Į":11005,"Ġìŀ¬íĮĲ":11006,"Ġ}+":11007,"Ġåº":11008,"Ġbind":11009,"Ġconcer":11010,"Ġorganic":11011,"Ġìłķíķ´":11012,"Ġstopped":11013,"Ġreverse":11014,"Ġinstrument":11015,"Ġtheme":11016,"Ġip":11017,"brid":11018,"ĠíĿĲë¦Ħ":11019,"Ġatm":11020,"Ġ\\{":11021,"Ġè¦":11022,"Ġacknow":11023,"Ġê°ķíķĺ":11024,"Ġìłĸ":11025,"house":11026,"ĠëĿ¼ëĭĪ":11027,"ĠPower":11028,"Ġcogn":11029,"ĠëĤĺìĦľ":11030,"sor":11031,"Ġê¸°íĥĢ":11032,"Comp":11033,"New":11034,"ì¼ĢíĮħ":11035,"ĠìĿ´ë¦¬":11036,"ĠãģĹãģŁ":11037,"ĠíĮĮìĿ¼":11038,"Ġsty":11039,"Ġraise":11040,"LC":11041,"ĠAfrican":11042,"Ġdigit":11043,"eting":11044,"Ġsor":11045,"ĠíĻĶìŀ¥íĴĪ":11046,"Ġmonitoring":11047,"Ġì§ľë¦¬":11048,"LS":11049,"Ġstatistical":11050,"íĢ´":11051,"Ġpractical":11052,"Ġë¬´ìĭľ":11053,"ĠíĺĳíļĮ":11054,"Ġretr":11055,"Ġèĩ":11056,"ĠìĤ´ìķĦê°Ģ":11057,"ĠReview":11058,"ĠRun":11059,"how":11060,"Ġë©ĶìĿ¸":11061,"Ġdetermination":11062,"ĠNH":11063,"Ġëĵ¬":11064,"Ġë°ĺë©´":11065,"ĠÌ§":11066,"Ġapproved":11067,"Ġresulted":11068,"Ġintegrated":11069,"Ġì²´ìľ¡":11070,"Ġstd":11071,"oday":11072,"Ġì²ŃìĨĮëħĦ":11073,"Ġëį°ìĿ´":11074,"Ġdemonstrate":11075,"Ġduty":11076,"case":11077,"Ġshock":11078,"Ġåľ¨":11079,"Ġë°°ì¹ĺ":11080,"Ġcontribution":11081,"Ġë§ĽëĤĺ":11082,"Ġrestaur":11083,"Ġacts":11084,"ĠDisc":11085,"Ġeffectively":11086,"Ġweather":11087,"Ġrac":11088,"standing":11089,"Ġì§ĢëĤľëĭ¬":11090,"Ġvent":11091,"ĠëĮĢìĤ¬":11092,"ĠView":11093,"Ġassigned":11094,"Ġ**(-":11095,"Ġê·¸ë¦¬ìĬ¤":11096,"ye":11097,"ĠëıĻê¸°":11098,"cence":11099,"Ġlaser":11100,"ìĭľëĭ¤":11101,"ìĺ¤ë¥´":11102,"ìĿ´íĶĦ":11103,"Ġisolated":11104,"Ġëª¨ë°ĶìĿ¼":11105,"Ġinstant":11106,"Ġautomatically":11107,"ĠFree":11108,"ê²°êµŃ":11109,"alty":11110,"ĠGal":11111,"ĠTom":11112,"ĠEduc":11113,"ua":11114,"Ġì°¨ëĭ¨":11115,"rup":11116,"Ġê°Ģë£¨":11117,"Ġìĺ¨ëıĦ":11118,"amber":11119,"Ġrecall":11120,"ĠìłĳìĪĺ":11121,"ĠìĿĢëį°ìļĶ":11122,"iac":11123,"Ġì¡°ê°ģ":11124,"Ġcalling":11125,"ĠíĬ¹ìłķ":11126,"ĠìķĦëĤ´":11127,"Ġgoogle":11128,"ĠLi":11129,"Ġcra":11130,"Ġdil":11131,"Ġneither":11132,"ker":11133,"ĠìĹĲìĸ´ì»¨":11134,"Ġattrac":11135,"Ġhun":11136,"ĠìłľìķĪ":11137,"ĠëĳĲëł¤":11138,"ìĺ·":11139,"ĠBrown":11140,"ffee":11141,"ìķĦë¦¬":11142,"ĠIM":11143,"Ġpieces":11144,"ĠVis":11145,"Ġsettle":11146,"Ġíķ´ì¡Į":11147,"Ġbudget":11148,"ĠSil":11149,"Ġcul":11150,"Ġíĸ¥ìĥģ":11151,"raise":11152,"Ġtransp":11153,"ĠJava":11154,"ĠìĦ±ìĿ¸":11155,"Ġgirls":11156,"Ġpossess":11157,"Ġegg":11158,"Ġdocs":11159,"Ġìĸ´ë¥¸":11160,"ĠServices":11161,"ì°Įê°ľ":11162,"Ġinstit":11163,"Ġì½ľëĿ¼":11164,"Ġcorner":11165,"Ġëĵľë¦´ê²ĮìļĶ":11166,"Ġwear":11167,"Ġrequests":11168,"Ġassumed":11169,"ìļ°ìĦł":11170,"ĠHill":11171,"ĠìķĦìĭľìķĦ":11172,"Ġmarried":11173,"ĠIr":11174,"ìµľê·¼":11175,"Ġinser":11176,"Ġpod":11177,"Title":11178,"Ġthr":11179,"Ġmiles":11180,"ĠìĮĪ":11181,"Ġê°ķìĽĲ":11182,"Ġìį°":11183,"Ġì¢ħëª©":11184,"Ġstructural":11185,"Ġcc":11186,"ĠInformation":11187,"Ġbon":11188,"ĠStand":11189,"Ġlos":11190,"ĠComm":11191,"Ġìª¼":11192,"Ġfunds":11193,"ĠâĹ":11194,"ĠìĦłíĺ¸":11195,"Ġsupposed":11196,"ìłĢê²ĥ":11197,"Ġtwice":11198,"Ġëį°ëł¤":11199,"Ä±":11200,"ìłĢíĬ¸":11201,"stein":11202,"ompl":11203,"ĠìĿĳìĽĲ":11204,"ĠWed":11205,"ĠëĿ½":11206,"Ġdynamics":11207,"Ġë§ĮëĤ¬":11208,"ĠìĿ¸íĦ°ë·°":11209,"Ġsac":11210,"Ġê·¸ê±¸":11211,"Ġincident":11212,"Î¹":11213,"Ġhence":11214,"ĠTem":11215,"Ġìĭ¤ìĪĺ":11216,"ĠPan":11217,"Ġcritic":11218,"Ġrevers":11219,"Ġvillage":11220,"Ġemployee":11221,"Ġjump":11222,"Ġgender":11223,"Ġbath":11224,"ĠëĶ¸ê¸°":11225,"uous":11226,"Ġaggreg":11227,"Ġê½ī":11228,"AY":11229,"ĠíĨµê³¼":11230,"Ġê¸°êµ¬":11231,"ĠCy":11232,"AV":11233,"Ġtelevision":11234,"Ġíķ´ìĦĿ":11235,"Ġê°ĲìĦ±":11236,"aked":11237,"ĠBill":11238,"uses":11239,"íĺĦìŀ¬":11240,"Ġê¸°ê¸°":11241,"ĠìĨĮìľł":11242,"Ġchief":11243,"Ġped":11244,"īìŀ¥ê³ł":11245,"Ġpredic":11246,"Path":11247,"Ġíķ©ë¦¬":11248,"urer":11249,"ìĬ¤íģ¬ë¦¼":11250,"inates":11251,"ìĤ¬ê³ł":11252,"ĠSi":11253,"Ġfashion":11254,"Ġsustain":11255,"ĠSunday":11256,"ĠìºĶ":11257,"!!!":11258,"timately":11259,"Ġdegrees":11260,"Ġsides":11261,"Ġblocks":11262,"ĠìķĦìĿ´ìĬ¤íģ¬ë¦¼":11263,"Ġkeeping":11264,"ĠìŀĲìłĦê±°":11265,"ĠìĪľìľĦ":11266,"Ġsolve":11267,"Ġoxygen":11268,"Ġestimates":11269,"Ġanalog":11270,"Ġì´īì´ī":11271,"Ġsys":11272,"IST":11273,"ĠìľłìĿ¼":11274,"ĠìĬµëĭĪê¹Į":11275,"Ġimaging":11276,"ĠìŀĦìĭł":11277,"Ġstatute":11278,"mo":11279,"Ġëĭµëĭµ":11280,"Ġjurisdiction":11281,"Ġë§Īì¼ĢíĮħ":11282,"Ġbias":11283,"Ġafford":11284,"ĠCommittee":11285,"anta":11286,"Ġaspect":11287,"ĠPRO":11288,"Ġguy":11289,"Ġì¶ķíķĺ":11290,"town":11291,"ëħĶ":11292,"onald":11293,"Ġ'/":11294,"Ġëį§ë¶Ļ":11295,"Ġë²ķìĿ¸":11296,"Ġtin":11297,"Ġ\\/":11298,"ê°Ģë£¨":11299,"Ġíħį":11300,"Ġêµ¬ë¶Ħ":11301,"Ġversus":11302,"Ġserum":11303,"Ġ^[@":11304,"ĠmL":11305,"titude":11306,"ĠRussia":11307,"Ġìļ°ìļ¸":11308,"Ġbattle":11309,"Ġë¯¸ì¹ĺ":11310,"Ġìĭľíĭ°":11311,"Ġbag":11312,"ëį©":11313,"Ġê±´ê°Ģ":11314,"ĠBest":11315,"ìĿ¸ì§Ģ":11316,"ishing":11317,"Ġbreast":11318,"ĠìĭŃëĭĪëĭ¤":11319,"ĠEqu":11320,"ĠëĨĶ":11321,"ĠìĤ¬íĥľ":11322,"ãĤĪ":11323,"ĠCalculate":11324,"tar":11325,"âĢĺ":11326,"ĠíĸĪìľ¼ë©°":11327,"Ġvarphi":11328,"Ġlung":11329,"Ġju":11330,"utely":11331,"íĶĶ":11332,"ĠëĮĢì¤ĳ":11333,"eph":11334,"Ġrecording":11335,"Ġseat":11336,"Ġë²ĦíĬ¼":11337,"]{},":11338,"ĠHen":11339,"Ġç§":11340,"Ġlaugh":11341,"adian":11342,"Ġìĭľê°ģ":11343,"ĠìĨĶì§ģíŀĪ":11344,"Ġçī":11345,"background":11346,"ĠíĻķìłķ":11347,"ĠìĹ°êµ¬ìĽĲ":11348,"ĠíĦ±":11349,"Ġrail":11350,"Ġíķłë¨¸ëĭĪ":11351,"Ġrelates":11352,"ĠText":11353,"Ġ{'":11354,"Ġemployment":11355,"ĠTop":11356,"Ġcu":11357,"ĠìķĦëĭĺ":11358,"Ġhal":11359,"Ġëľ¯":11360,"ëĶĶìħĺ":11361,"ĠíĸĪìľ¼ëĤĺ":11362,"Ġestate":11363,"Ġprosec":11364,"ĠCam":11365,"ĠìĦľë¥ĺ":11366,"Ġ}^{\\":11367,"ĠRoman":11368,"Ġvess":11369,"Ġì·¨ëĵĿ":11370,"Ġê°Ĳê¸°":11371,"Ġì´Īì½Ķ":11372,"Ġaccounts":11373,"Ġbaby":11374,"Ġblank":11375,"cho":11376,"Ġrecommended":11377,"Ġä¸į":11378,"Ġê°ĢìļĶ":11379,"Ġking":11380,"estiv":11381,"Ġimplemented":11382,"Ġperspective":11383,"Ġvision":11384,"Ġmeta":11385,"ĶĢ":11386,"Ġë§ĪìłĢ":11387,"ĠPO":11388,"ìŀī":11389,"ê»ĺìļĶ":11390,"ëĦī":11391,"Ġpharm":11392,"lines":11393,"ĠProv":11394,"ulture":11395,"Ġhaven":11396,"ĠNav":11397,"ĠCircuit":11398,"Ġë©ĶìĿ´":11399,"Ġ','":11400,"Ġconj":11401,"inator":11402,"ë£¡":11403,"Ġë½Ģ":11404,"Ġáħ²áħ²áħ²":11405,"ì»µ":11406,"ĠLo":11407,"Ġexceed":11408,"Ġdesk":11409,"ìĤ¬ìŀ¥":11410,"Ġë¯¸ì¹ľ":11411,"clusion":11412,"Ġencoun":11413,"Ġentirely":11414,"edia":11415,"Ġíİ¼ì³Ĳ":11416,"ĠëĬĶëĭ¤ëĬĶ":11417,"Ġmarkdown":11418,"eries":11419,"Ġplastic":11420,"Ġìĭłë¬¸":11421,"Ġë²ĶìľĦ":11422,"Ġchair":11423,"ĠìĸĳíĮĮ":11424,"Ġic":11425,"ĠìĬ¤íĬľ":11426,"Ġshop":11427,"Ġsharing":11428,"íĬ¹ë³Ħ":11429,"Ġ}}(":11430,"Ġaccompl":11431,"ĠCentral":11432,"Ġschedul":11433,"Ġcategories":11434,"ĠRobert":11435,"Ġassuming":11436,"Ġsupporting":11437,"ĠãģĦ":11438,"ĠLu":11439,"po":11440,"ticed":11441,"ĠTheorem":11442,"ĠMass":11443,"Ġfees":11444,"ĠãģĻãĤĭ":11445,"ĠìĿ´ëŀĺ":11446,"ĠFrank":11447,"Ġlose":11448,"ĠWal":11449,"using":11450,"bb":11451,"ĠìĿµìĪĻ":11452,"Ġdepartment":11453,"ĠDev":11454,"ĠArab":11455,"Ġéĥ":11456,"Ġscal":11457,"ĠìłĲìĪĺ":11458,"Ġê³ģ":11459,"pg":11460,"ĠMD":11461,"Ġadequ":11462,"Ġë°´":11463,"istan":11464,"Ġdefinitely":11465,"ê¸ĭ":11466,"Ġëıĭ":11467,"ĠíĪ¬íĳľ":11468,"ĠExper":11469,"Ġmic":11470,"ja":11471,"ĠSocial":11472,"Ġabuse":11473,"Ġviolence":11474,"Ġng":11475,"ĠìłķìĿĺ":11476,"Ġê³Ħê¸°":11477,"break":11478,"ĠSou":11479,"Ġguys":11480,"Ġdecide":11481,"rad":11482,"ĠìĹĲìĬ¤":11483,"PD":11484,"ĠRef":11485,"oded":11486,"ìłĢëħģ":11487,"Ġatom":11488,"Ġtot":11489,"thle":11490,"ĠAmericans":11491,"under":11492,"Ġaccident":11493,"ĠìķĦë¬´ê²ĥ":11494,"Ġperman":11495,"OG":11496,"Ġradiation":11497,"ĠLong":11498,"ĠìľĦíķĺ":11499,"Ġbroken":11500,"ĠëĦĺìĸ´ê°Ģ":11501,"ĠAma":11502,"ĠìłĢìŀ¥":11503,"Ġë§ŀìĿ´":11504,"Ġlangle":11505,"Ġëļ«":11506,"ëĳĶ":11507,"Ġcharges":11508,"Ġcharacterized":11509,"Not":11510,"Ġtables":11511,"Ġsuccessfully":11512,"Ġì§Īë³ĳ":11513,"åŃ":11514,"eli":11515,"åĲ":11516,"Ġattached":11517,"Ġëĭ¹ìĿ¼":11518,"ĠThomas":11519,"ustice":11520,"tx":11521,"ĠEX":11522,"ĠChild":11523,"rog":11524,"Ġbusinesses":11525,"ëĵŃ":11526,"asy":11527,"Ġfundamental":11528,"ĠìĹł":11529,"Ġ}_{\\":11530,"Ġliver":11531,"Ġsubmit":11532,"Ġflav":11533,"Ġdoctor":11534,"ĠìĨĲëĭĺ":11535,"ìłĢìĶ¨":11536,"Ġtruly":11537,"ĠAnother":11538,"arsh":11539,"Ġfell":11540,"ĠìŃĪ":11541,"bsp":11542,"ĠìĿ¸ìĪĺ":11543,"erry":11544,"care":11545,"Ġban":11546,"ĠéĻ":11547,"ĠìĪľíĻĺ":11548,"Ġìĭ¬ìŀ¥":11549,"anda":11550,"Ġflag":11551,"Ġcommitted":11552,"Ġobservation":11553,"Ġdisk":11554,"ostic":11555,"Ġends":11556,"ĠFC":11557,"Ġfi":11558,"Ġëĳĺì§¸":11559,"Ġreducing":11560,"Ġenem":11561,"ĠÂ£":11562,"Ġê·łíĺķ":11563,"Ġë©´ìłĳ":11564,"cean":11565,"Ġhousing":11566,"ĠProject":11567,"ĠëĦĪíĿ¬":11568,"Ġëį°ìĿ´íĬ¸":11569,"ĠEarth":11570,"ĠíıīìĥĿ":11571,"ĠìĭľìĦł":11572,"ĠíĶĦëłĪ":11573,"ĠìĽ¹":11574,"ĠëĬĲê¼Ī":11575,"ĠìĤ¬ë¬´ìĭ¤":11576,"Ġpreserv":11577,"Ġsan":11578,"Ġentity":11579,"Ġconflict":11580,"ĠMicrosoft":11581,"Ġcontinues":11582,"Ġsupports":11583,"Ġcontroller":11584,"Ġcache":11585,"ĠìŀĲìĦ¸íŀĪ":11586,"ĠPlan":11587,"Ġunderstood":11588,"Ġld":11589,"Ġconcerned":11590,"irt":11591,"ĠÂŃÂŃ":11592,"Ġcontents":11593,"Ġintegration":11594,"ĠìĶ¹":11595,"Ġgrade":11596,"ĠÂ®":11597,"Ġstret":11598,"ĠLouis":11599,"ĠÃ¤":11600,"Ġinvolving":11601,"Ġloved":11602,"Ġlap":11603,"íĨ±":11604,"ctions":11605,"Ġaudio":11606,"Ġmountain":11607,"ĠDown":11608,"Ġsv":11609,"Ġì¢ħìĿ¼":11610,"ĠêµĲìĤ¬":11611,"Ġfolder":11612,"Ġìĭ¤ì²ľ":11613,"oned":11614,"Ġì¹´ì¹´ìĺ¤":11615,"AND":11616,"Ġpref":11617,"Ġåī":11618,"ĠCheck":11619,"xi":11620,"ĠScott":11621,"ĠBur":11622,"Ġadults":11623,"Ġìĺ¬ë¦¼íĶ½":11624,"umer":11625,"ointed":11626,"\")":11627,"Ġatmosph":11628,"Ġcontribute":11629,"Ġpolymer":11630,"Ġbehaviour":11631,"Ġì£¼ìĨĮ":11632,"Ġcreation":11633,"arser":11634,"ë¹Ķ":11635,"Ġphilosoph":11636,"ĠíĭĪ":11637,"Ġidentification":11638,"icago":11639,"Ġwilling":11640,"ĠìĭľíĬ¸":11641,"Ġclock":11642,"Ġinstructions":11643,"ëĩ¨":11644,"Ġenforce":11645,"Cs":11646,"Ġìļ©ê¸°":11647,"ione":11648,"ĠíĮ¨ìħĺ":11649,"These":11650,"ì²ľíŀĪ":11651,"ĠIR":11652,"Ġattend":11653,"ĠCath":11654,"See":11655,"Ġcitizens":11656,"aters":11657,"ĠíĶĮëŀ«":11658,"aturday":11659,"ĠKh":11660,"Ġcards":11661,"Ġwra":11662,"âĻ¥":11663,"tors":11664,"ë¦İ":11665,"XX":11666,"ĠìĹĦì²ŃëĤľ":11667,"TE":11668,"Ġcab":11669,"{{":11670,"vest":11671,"Ġì²łìłĢ":11672,"Ġii":11673,"Ġì¤Į":11674,"Ġê³łìĦľ":11675,"ĠíŀĲë§ģ":11676,"Ġ|>#":11677,"ĠPCR":11678,"Ġpotentially":11679,"Ġsed":11680,"á»":11681,"ìĿ´íģ¬ìĹħ":11682,"ĠCB":11683,"Ġë¶Ģìĥģ":11684,"Ġëħ¼ëŀĢ":11685,"Ġì§ĢìłĲ":11686,"Ġrecons":11687,"Ġappellant":11688,"ë§ĪíĨł":11689,"Ġì±ĦìĽĮ":11690,"Ġwriter":11691,"Ġresearchers":11692,"ĠìĺģìĹŃ":11693,"Ġsimult":11694,"Ġhole":11695,"Ġsalt":11696,"acle":11697,"ĠìļĶê¸Ī":11698,"here":11699,"Ġë§¤ë§¤":11700,"Ġì´Īë°ĺ":11701,"Ġë§Īì£¼":11702,"íĻĺê²½":11703,"oster":11704,"Ġopposite":11705,"ì¢Ģ":11706,"ĠFlorida":11707,"Ġowned":11708,"Ġasking":11709,"ĠìķĮëł¤ì¡Į":11710,"Ġ..)":11711,"Ġclassification":11712,"Ġdefendants":11713,"udes":11714,"Tw":11715,"Ġmixture":11716,"Ġê´ĢìłĪ":11717,"Ġexamination":11718,"ĠJudge":11719,"ĠìĨĮìĨ¡":11720,"Ġwest":11721,"Ġjour":11722,"ìķĹ":11723,"ĠSn":11724,"ĠëĵľëłĪìĬ¤":11725,"ĠHence":11726,"azine":11727,"ĠíĪ¬ëªħ":11728,"zing":11729,"istent":11730,"ĠSign":11731,"ë¸Ĳ":11732,"ĠLem":11733,"Ġfamiliar":11734,"ĠDS":11735,"Ġreplaced":11736,"ĠìļĶìĿ¸":11737,"Ġëĭ¹íķĺ":11738,"ashed":11739,"Ġrequirement":11740,"Ġ-)":11741,"Ġìĳ":11742,"ĠíĥĿìĭľ":11743,"onym":11744,"Ġ\"(":11745,"Ġìĭ¹":11746,"Ġtwenty":11747,"Ġìķłê¸°":11748,"ship":11749,"Ġìĺ¬ëł¸":11750,"Ġë°°íĦ°ë¦¬":11751,"Ġstood":11752,"Ġfo":11753,"ĠìľĦì£¼":11754,"Ġveget":11755,"Ġpump":11756,"Ġdj":11757,"ĠìĦ±ëĬ¥":11758,"Ġëĭ¥":11759,"ãĥ³ãĥ":11760,"Ġupload":11761,"Ġìŀİ":11762,"Ġstimul":11763,"ih":11764,"Ð¾Ð²":11765,"ĠDen":11766,"ĠPlay":11767,"ãģ¾":11768,"but":11769,"ìĻĢëĮĢ":11770,"Ġìĺ¬ëŀĲ":11771,"Serv":11772,"Ġtoler":11773,"Ġprinciple":11774,"Ġouter":11775,"Ġlabels":11776,"ãģ£ãģŁ":11777,"ĠìīĲ":11778,"Ġìłľì£¼ëıĦ":11779,"Ġxml":11780,"ĠéĽ":11781,"Ġì¤ĳëĭ¨":11782,"Ġíĸ¥íĽĦ":11783,"ĠFederal":11784,"Ġê°ĢëŁī":11785,"irms":11786,"Ġgranted":11787,"Ġmechanical":11788,"Ġë°ĶëĶĶ":11789,"iÃ³n":11790,"Ġê±°ë¶Ģ":11791,"Ġwinning":11792,"Ġprimarily":11793,"Ġdecades":11794,"ĠìĦ¤ë¦½":11795,"ĠìķĪìª½":11796,"Ġê·¸ê±°":11797,"Ġëĵ¤ëł¤":11798,"Ġunable":11799,"Ġgeq":11800,"Ġçµ":11801,"Ġpredicted":11802,"Ġì°¨ë³Ħ":11803,"Ġwithd":11804,"Ġìķ¼êµ¬":11805,"Ġaccomp":11806,"Ġëį©":11807,"ãģĤãĤĭ":11808,"ĠëĤ³":11809,"ĠëıĮìķĦìĺ¤":11810,"Ġfans":11811,"Ġexplore":11812,"First":11813,"Ġpark":11814,"Ġconsideration":11815,"ĠìĿ¸ë¶Ħ":11816,"FP":11817,"Ġëĭ¬ëĭ¬":11818,"ĠìķłíĶĮ":11819,"vo":11820,"Ġì½ĺíħĲì¸ł":11821,"xx":11822,"resent":11823,"Ġcss":11824,"Ġå¥":11825,"Ġpersons":11826,"Index":11827,"Ġëĭ¹êµŃ":11828,"ĠFed":11829,"Ġ_,":11830,"Ġrig":11831,"Ġì§Ŀ":11832,"amily":11833,"Ġassembly":11834,"Size":11835,"Ġentitled":11836,"Ġmas":11837,"ql":11838,"Ø±":11839,"ĠWho":11840,"troduction":11841,"ateral":11842,"Ġintervention":11843,"ĠLine":11844,"osa":11845,"ĠMonday":11846,"oub":11847,"ĠFOR":11848,"Ġtrials":11849,"utic":11850,"ĠBlue":11851,"They":11852,"ĠëĤĺìģĺ":11853,"ece":11854,"ĠMP":11855,"Ġë²ķìĽĲ":11856,"å¤":11857,"Ġdebug":11858,"ĠìķĦëıĻ":11859,"Ġvul":11860,"ĠìĤ¼ê²¹ìĤ´":11861,"ĠëĤ«":11862,"ading":11863,"Ġì¶ľìĹ°":11864,"Ġphysic":11865,"Ġ>>":11866,"Ġthereby":11867,"agen":11868,"Ġbiom":11869,"ĠìĬ¤íĶ¼":11870,"host":11871,"Ġë°±íĻĶìłĲ":11872,"ĠìķĦë©Ķ":11873,"Ġamazing":11874,"tiveness":11875,"Ġpil":11876,"Ġ^+":11877,"Ġì«Ħ":11878,"Ġcurren":11879,"Ġepisode":11880,"ðŁ":11881,"Ġmaintenance":11882,"Ġresponsibility":11883,"Ġusual":11884,"Ġê°Ħëĭ¤":11885,"Ġrecognition":11886,"Ġalcohol":11887,"Ġcities":11888,"Ġven":11889,"Ġì±ĦëĦĲ":11890,"Ġ_>":11891,"Ġë§º":11892,"Ġindustrial":11893,"ĠëĮĢë¦¬":11894,"ellular":11895,"Ġfan":11896,"Ġlymph":11897,"Ġë´īìĤ¬":11898,"Ġspaces":11899,"ë´Ħ":11900,"ando":11901,"ĠCEO":11902,"ì§ĳëĭĪëĭ¤":11903,"ĠíĸĦ":11904,"ĠíħĶ":11905,"Ġalge":11906,"itchen":11907,"ãģ¦ãģĦãĤĭ":11908,"ĠìĥĪë¡Ń":11909,"ĠTwitter":11910,"ĠëĿ¼ëĸ¼":11911,"Ġjavascript":11912,"Ġkernel":11913,"Ġcruc":11914,"Ġrd":11915,"Ġíĳ¹":11916,"ME":11917,"ĠAz":11918,"Ġbiological":11919,"Ġì´Īë°¥":11920,"ĠAB":11921,"Ġhumans":11922,"ĠìĿ¸íķĺ":11923,"ìĭľì§Ģ":11924,"íħĮìĿ¼":11925,".!":11926,"ĠCarol":11927,"Ġtrib":11928,"tyle":11929,"Ġbio":11930,"Ġìľ¼ë¯Ģë¡ľ":11931,"Ġíķ´ìĨĮ":11932,"ifier":11933,"Ġreson":11934,"Ġêµ°ìļĶ":11935,"Ġelectrical":11936,"chron":11937,"gression":11938,"Ġcomplaint":11939,"rid":11940,"ĠInstead":11941,"Ġpopulations":11942,"Ġëŀ©":11943,"Ġinterpretation":11944,"ĠëŁī":11945,"ĠBC":11946,"Ġì¸¡ë©´":11947,"Ġshell":11948,"Ġê·¸ê±´":11949,"íķĢ":11950,"ĠíĨµíķĺ":11951,"Ġë¹Ħìĭ¼":11952,"ĠOk":11953,"ĠíĥĿë°°":11954,"Ġcompeti":11955,"Ġpropag":11956,"ĠëĪĮëŁ¬":11957,"Ġremark":11958,"ching":11959,"Ġpet":11960,"defined":11961,"ĠìķŀëĳĲ":11962,"ĠÂĢ":11963,"oked":11964,"Ġê°Ģìĭľ":11965,"Ġê³ĦìłĪ":11966,"Ġë¯¸ìĨĮ":11967,"Ġbeat":11968,"Ġê°Ħíİ¸":11969,"ëįĶìļ±":11970,"Ġrats":11971,"Ġindicating":11972,"Ġê°Ģë²¼":11973,"ĠìķĦìĺĪ":11974,"Ġpitch":11975,"Ġprovision":11976,"Ġcrack":11977,"ĠëĤĺê°Ķ":11978,"Ġë³´ìĪĺ":11979,"amine":11980,"tension":11981,"ÃŃa":11982,"Ġë¶ī":11983,"Ġfoo":11984,"Ġëĭ¬ìĦ±":11985,"ëĤĺë§Ī":11986,"Ġê³¼ëª©":11987,"Ġê¸°ëĭ¤ëł¤":11988,"ĠìĿ¸ê·¼":11989,"Ġconclude":11990,"Ġplain":11991,"Ġëª¬":11992,"FS":11993,"ĠëĦī":11994,"ĠSecret":11995,"Ġë¶Īê°Ģ":11996,"Ġë²ķë¥ł":11997,"Ġapart":11998,"Ġmetabol":11999,"Ġcomposite":12000,"Ġret":12001,"Ġê°ģìŀĲ":12002,"Ġê°ĢìĬ¤":12003,"ĠìķĦëĭĮëį°":12004,"db":12005,"ĠìĦ¸íĥģ":12006,"ë²ħ":12007,"Ġì¼ľ":12008,"oly":12009,"ĠìłķìĭĿ":12010,"Ġëĭ¹íĻ©":12011,"Ã©s":12012,"ĠImage":12013,"Ġdefic":12014,"ĠíĿī":12015,"Ġreviews":12016,"Ġtrail":12017,"Trans":12018,"rie":12019,"Ġnecessarily":12020,"Ġasym":12021,"Ġëĵ¤ìĹ¬":12022,"Ġdiameter":12023,"Ġì§¬":12024,"íļĮìĤ¬":12025,"Ġê±°ìĭ¤":12026,"Mod":12027,"ĠíĢĦ":12028,"ĠìľłìĤ°":12029,"Ġteachers":12030,"ultural":12031,"Ġurban":12032,"Ġeast":12033,"ĠíĮ¨ìĬ¤":12034,"ĠìľłíĬľë¸Į":12035,"ĠBusiness":12036,"Ġë³µìŀ¡":12037,"Ġë³´ëĭ¨":12038,"íĻĢ":12039,"Ġfra":12040,"iffer":12041,"rian":12042,"ressive":12043,"Ġvec":12044,"Ġimpossible":12045,"ĠìĹ¬ìķ¼":12046,"Ġrid":12047,"ĠìĺĽëĤł":12048,"athy":12049,"Ġfriendly":12050,"Ġauthentic":12051,"anged":12052,"istically":12053,"Ġtechnologies":12054,"Ġê°Ħìŀ¥":12055,"ĠëĨ¨":12056,"Ġ^{(":12057,"ĠëĪĦë¥´":12058,"uesday":12059,"auth":12060,"Ġìī¬ìļ´":12061,"bour":12062,"ĠëĤ´ëł¤ê°Ģ":12063,"Ġol":12064,"Ġsigns":12065,"ĠCall":12066,"iki":12067,"ĠìĹĶì§Ħ":12068,"ĠÐ¸":12069,"Ġë©¤":12070,"Ġprotected":12071,"Ġì·¨ìĨĮ":12072,"ìĬ¤íĨł":12073,"Ġtorch":12074,"Ġconcluded":12075,"ë§Ļ":12076,"Ġ}})":12077,"Ġattribute":12078,"Ġteacher":12079,"Ġë¶Īë²ķ":12080,"Ġêµ¬ìĿ´":12081,"Ġêµ¬íķĺ":12082,"ĠìķĦìłĢìĶ¨":12083,"Ġenhanced":12084,"Ġì²Ńêµ¬":12085,"Ġassessed":12086,"Ġwarn":12087,"ĠFour":12088,"Add":12089,"ĠìŁ":12090,"Ġìĭłëĭ¤ë©´":12091,"ĠëļĿ":12092,"Ġserial":12093,"Ġbolds":12094,"Ġsugges":12095,"Ġlicense":12096,"Since":12097,"ecutive":12098,"ì£ł":12099,"Ġíĺĳìĥģ":12100,"Ġexpensive":12101,"Ġspeaking":12102,"ĠíĶ¼íķ´ìŀĲ":12103,"ĠìĿ´ëĤ´":12104,"Ġcolors":12105,"Ġaid":12106,"ëľ©":12107,"aneously":12108,"ëįľ":12109,"Ġcourts":12110,"Ġthir":12111,"ĠTimes":12112,"Ġhistorical":12113,"Ġ.!":12114,"ĠOrder":12115,"Ġì¼":12116,"Ġflux":12117,"ĠOper":12118,"ìħľ":12119,"ĠFire":12120,"Î½":12121,"{}":12122,"Ġsensors":12123,"ĠíĬĢê¹Ģ":12124,"Ġëıħë¦½":12125,"Ġë¹Ħì¤ĳ":12126,"Ġëħ¸ìĿ¸":12127,"Ġdual":12128,"Ġë°©ì¹¨":12129,"ìł¤":12130,"otype":12131,"Ġboldsymbol":12132,"ĠPhoto":12133,"ĠÑ":12134,"Ġìĺ¬ëĿ¼ìĺ¤":12135,"Ġamounts":12136,"Ġriver":12137,"Ġlargely":12138,"ĠíķĢ":12139,"except":12140,"Ġë³´ì¦Ŀ":12141,"Ġregression":12142,"ĠÐ¾":12143,"ìĸ¼ë§Ī":12144,"ĠApple":12145,"Ġdress":12146,"Ġê³¼ìĹ°":12147,"Ġassist":12148,"ë¶ĢìĤ°":12149,"Ġêº":12150,"Ġdd":12151,"ceived":12152,"Ġimplies":12153,"Out":12154,"ĠChicago":12155,"Ġì§ĳìķĪ":12156,"Ġëĭ¤ìĨĮ":12157,"Ġstages":12158,"Ġtargets":12159,"Model":12160,"ĠìŁģ":12161,"ĠWhe":12162,"Ġgrown":12163,"iration":12164,"Ġlisten":12165,"ĠìĿ´íĭĢ":12166,"ĠìĬ¤íĶĦ":12167,"Ġclosely":12168,"Ġseeking":12169,"Ġaudience":12170,"ĠLC":12171,"Ġê¹ĮìĬ¤":12172,"ĠBased":12173,"Ġabund":12174,"ĠGS":12175,"ensus":12176,"Ġremoval":12177,"tons":12178,"Ġì£½ìĿĮ":12179,"Ġdisabled":12180,"Ġíķ¨ìľł":12181,"lets":12182,"ĠAtl":12183,"Ġìĭłë¶Ģ":12184,"ĠìķĪê²½":12185,"ĠìĦ¸íı¬":12186,"Ġconversation":12187,"Ġpin":12188,"ĠíĻĶëł¤":12189,"Ġìĥ´":12190,"Ġdescribes":12191,"adata":12192,"Ġbaseline":12193,"ĠIsland":12194,"Ed":12195,"Ġë°±ìĭł":12196,"ĠíİĢëĵľ":12197,"Ġworse":12198,"Ġrepair":12199,"Ġguard":12200,"Ġä»¥":12201,"Ġë°¸":12202,"ÙĬ":12203,"ĠError":12204,"Ġsoc":12205,"ĠëĦ·":12206,"vas":12207,"Ġclaimed":12208,"Ġconference":12209,"Ġble":12210,"ãĤ¯":12211,"ì»´":12212,"Ġë¬´ê¸°":12213,"Ġwinter":12214,"ĠÎ³":12215,"ĠDu":12216,"Ġhash":12217,"Ġpromote":12218,"Ġë°°ì¶ľ":12219,"ĠìĬµëĭĪëĭ¹":12220,"Ġthoughts":12221,"ĠThanks":12222,"Ġinten":12223,"Ġadopted":12224,"Ġthickness":12225,"yer":12226,"Date":12227,"Ġandroid":12228,"ĠParis":12229,"Ġë¯¼ê°Ħ":12230,"ĠìĿĺë¬´":12231,"ĠìĿ¸ëł¥":12232,"oints":12233,"acent":12234,"Ġê³Ħëĭ¨":12235,"ë¨¼ìłĢ":12236,"íĬ¸ëĤ¨":12237,"Ġgt":12238,"cher":12239,"Ġdt":12240,"Ġinvolves":12241,"è¡":12242,"gi":12243,"ĴĮ":12244,"ĠDesign":12245,"ë¶Ģëª¨":12246,"Ġtemperatures":12247,"Ġëł¥":12248,"ĠëĽ°ìĸ´":12249,"ĠMen":12250,"ĠìĬ¤íĬľëĶĶìĺ¤":12251,"VID":12252,"Ġë³ĦëıĦ":12253,"Ġregional":12254,"Ġsweet":12255,"ìĸ¸ìłľ":12256,"Ġneck":12257,"ìĸ´ëĬĲ":12258,"Ġforg":12259,"ollowing":12260,"Ġterror":12261,"ca":12262,"à¹":12263,"Table":12264,"Ġpairs":12265,"æĸ":12266,"Ġdys":12267,"PR":12268,"ĠìĹĲê²Ĳ":12269,"Ġê±°ì£¼":12270,"appa":12271,"Ġflight":12272,"ĠBet":12273,"Ġassistance":12274,"ĠCamp":12275,"Ġíľ´ê°Ģ":12276,"LA":12277,"Ġëĵłëĭ¤":12278,"icious":12279,"essions":12280,"Ġprofit":12281,"Ġ-.":12282,"Ġnbsp":12283,"water":12284,"Ġreform":12285,"ĠColor":12286,"Ġlie":12287,"border":12288,"ë°Ķëĭ¥":12289,"Ġëĸłìĺ¬":12290,"Ġì½Ķëĵľ":12291,"uable":12292,"ĠVirgin":12293,"ĠLED":12294,"Ġsitting":12295,"Ġevening":12296,"Ġquiet":12297,"Ġìļ°ì£¼":12298,"Ġtow":12299,"fe":12300,"ĠíĨłìļĶìĿ¼":12301,"endment":12302,"ĠëŃī":12303,"Ġcommission":12304,"Ġíģ¬ë¦¬ìĬ¤ë§ĪìĬ¤":12305,"Ġgod":12306,"Ġtub":12307,"ĠëĬĲëĤĢ":12308,"Ġë¨¹ìĿ´":12309,"Ġë¶ĢìĹ¬":12310,"Ġcompound":12311,"Ġarrived":12312,"ĠëıĮë¦¬":12313,"Ġcloth":12314,"ĠChe":12315,"Ġì¾Į":12316,"Ġcapture":12317,"Ġë¬´íķľ":12318,"ĠSigma":12319,"ĠëłĪëĵľ":12320,"Ġbinary":12321,"Ġ>.":12322,"Ġ'])":12323,"Ġíı¬íĨł":12324,"Ġincub":12325,"ĠíĴĪì§Ī":12326,"ĠSociety":12327,"Ġtransformation":12328,"can":12329,"Ġoral":12330,"txt":12331,"Inter":12332,"Ġíĸ¥íķ´":12333,"ĠìłķìĽĲ":12334,"ĠíĻĶíķĻ":12335,"ursday":12336,"ĠìĿ¼ìļĶìĿ¼":12337,"Ġêµ³ìĿ´":12338,"ä½":12339,"Ġsizes":12340,"ë½ķ":12341,"opic":12342,"Ġì»¤ë²Ħ":12343,"ĠìĤ¬ìĥģ":12344,"ceptions":12345,"ĠíĮģ":12346,"Ġimmune":12347,"ëłĪê¸°":12348,"Ġì°¾ìķĦê°Ģ":12349,"Ġì¿¨":12350,"ola":12351,"Ġune":12352,"Ġinitially":12353,"Ġ``":12354,"Ġexamine":12355,"cribe":12356,"Ġours":12357,"Ġë©°ì¹ł":12358,"Ġpdf":12359,"ëĵľë¦Ħ":12360,"angle":12361,"Ġru":12362,"Ġ*]{}":12363,"ĠìŀĲë³¸":12364,"Ġiden":12365,"Ġê±´ëĦĪ":12366,"ìĺ¬íķ´":12367,"íŀĲ":12368,"Ġ\"],":12369,"roller":12370,"Ġproportion":12371,"Ġlimitations":12372,"Ġdefe":12373,"onn":12374,"êµ¬ë§Ī":12375,"Ġmarriage":12376,"len":12377,"ĠìŀĲëĬĶ":12378,"ĠDevelopment":12379,"Ġë¶Īê³¼":12380,"Ġèª":12381,"ëĭµë³Ģ":12382,"Ġrepeat":12383,"ĠMel":12384,"erver":12385,"emat":12386,"Ġì¹Ńì°¬":12387,"aired":12388,"Ġpictures":12389,"ĠSecurity":12390,"Ġluck":12391,"Ġpreval":12392,"ĠëĶĶìłĢíĬ¸":12393,"âĢĵ":12394,"Ġfunding":12395,"ĠSO":12396,"ĠåŃ¦":12397,"Abstract":12398,"ĠGrand":12399,"ticle":12400,"ĠìĿ´ëłĩ":12401,"ĠíĸĪìĸ´ìļĶ":12402,"ĠFile":12403,"ĠED":12404,"Ġíİ¸ì§Ģ":12405,"Ġshr":12406,"Ġapplicable":12407,"Ġresidents":12408,"Ġæľī":12409,"ĠíĿĲë¥´":12410,"Ġedges":12411,"ĠÏĦ":12412,"grade":12413,"ĠIslam":12414,"ĠObama":12415,"ĠìłķìĦ±":12416,"ocytes":12417,"ĠìĿĺíĺ¹":12418,"ĠVe":12419,"Ġë¬¶":12420,"Ġëıķ":12421,"Ġmedian":12422,"Ġsounds":12423,"ername":12424,"Ġë©ĶìĿ´íģ¬ìĹħ":12425,"Ġhabit":12426,"Ġschedule":12427,"Ġì¹´íĨ¡":12428,"Ġhelping":12429,"Ġì£¼ìľĦ":12430,"Ġê³¼ìŀĲ":12431,"Ġcircle":12432,"Ġë¶ĢíĴĪ":12433,"ĠMain":12434,"coming":12435,"era":12436,"ĠMB":12437,"ëł¤ê³ł":12438,"Ġìłķê¸°":12439,"Ġ}}^":12440,"Ġê±°ì§ĵ":12441,"Ġarchitecture":12442,"ĠRichard":12443,",\\":12444,"Ġattacks":12445,"ictor":12446,"Ġê°ĸì¶Ķ":12447,"Ġëħ¸ì¶ľ":12448,"Ġpackages":12449,"ìİ":12450,"ĠAdmin":12451,"ìĦ¸ê³Ħ":12452,"pan":12453,"ĠìĿ¸êµ¬":12454,"ials":12455,"Ġsought":12456,"Ġoffering":12457,"Ġì²ľìĹ°":12458,"tur":12459,"Ġturns":12460,"Ġì§Ģíķĺì²ł":12461,"Ġsenior":12462,"Ġartist":12463,"Ġasc":12464,"Ġcompat":12465,"Ġêµ¬ìĨį":12466,"Ġretrie":12467,"ĠSci":12468,"ĠFIG":12469,"Ġstrip":12470,"Ġgro":12471,"ĠíĻķìŀ¥":12472,"ĠNumber":12473,"Ġwatching":12474,"cks":12475,"Ġdelivered":12476,"Ġê³±ì°½":12477,"Ġfacilities":12478,"ĠassertEqual":12479,"Ġmock":12480,"Ġë²Ħê±°":12481,"Ġì²ľì²ľíŀĪ":12482,"Ġtransaction":12483,"Ġì²´ëł¥":12484,"eding":12485,"ĠëĵĿìłĲ":12486,"ĠíķĦë¦Ħ":12487,"Ġui":12488,"ĠKT":12489,"Ġmarkets":12490,"Ġfigures":12491,"ĠEnd":12492,"Ġinterpre":12493,"Ġmicrosc":12494,"Ġìĺµìħĺ":12495,"Ġinformed":12496,"Ġroles":12497,"Ġì¦Ŀê±°":12498,"ĠGive":12499,"nesday":12500,"Node":12501,"obile":12502,"Ġwarning":12503,"Ste":12504,"Ġê²½ëł¥":12505,"Ġimmigr":12506,"ĠIran":12507,"Ġì§ľì¦Ŀ":12508,"Ġê°Ģë¡ľ":12509,"Îµ":12510,"Ġìłĳì¢ħ":12511,"ëŃĶ":12512,"Ġsteel":12513,"Ġnod":12514,"Ġclar":12515,"Ġë´ĲìĦľ":12516,"Ġë¬´ë¦İ":12517,"Ġëį§ë¶ĻìĺĢ":12518,"ĠíĶĦëĿ¼":12519,"ĠìĪĺë§İ":12520,"Ġunion":12521,"Ġë¨¼ì§Ģ":12522,"Ġreliable":12523,"Ġíķľê°Ģ":12524,"Ġconstructed":12525,"ĠRule":12526,"ĠìĿ¼ìŀĲë¦¬":12527,"Ġì²´ê²°":12528,"ĠÐº":12529,"Ġhang":12530,"ĠLand":12531,"Ġì¶ĺ":12532,"ë¨¼ì§Ģ":12533,"Dis":12534,"Ġë²Ĺìĸ´ëĤĺ":12535,"Ġì£ĦìĨ¡":12536,"aft":12537,"Ġforming":12538,"Ġprincipal":12539,"Ġsugar":12540,"like":12541,"Ġnegoti":12542,"ĠJohnson":12543,"ĠìĿ´ê¸°":12544,"Ġìłķë¹Ħ":12545,"Ġdrawn":12546,"Ġconcerning":12547,"Ġinfer":12548,"udd":12549,"Ġê²°ë¡ł":12550,"ĠìĬĪíį¼":12551,"Ġfellow":12552,"ART":12553,"ìĿ¼ë¦¬":12554,"Ġkin":12555,"Ġ***":12556,"ĠíĮĮíĬ¸":12557,"ìķĦë²Ħì§Ģ":12558,"iest":12559,"Ġìĺ´":12560,"ĠNext":12561,"cr":12562,"Ġfamous":12563,"ĠAmazon":12564,"omal":12565,"Ġcrisis":12566,"Ġìĸ´ëĶ":12567,"Solve":12568,"Ġpresents":12569,"Ġmine":12570,"ĠSaturday":12571,"ĠBuild":12572,"Ġcoast":12573,"Ġlowest":12574,"Ãª":12575,"Ġhall":12576,"Ġensuremath":12577,"Ġassay":12578,"Ġcoffee":12579,"ê°Ĵ":12580,"Ġ\"[":12581,"Ġcloser":12582,"rene":12583,"ona":12584,"Ġwalking":12585,"Ġmethyl":12586,"ĠëĭĪëĭ¤":12587,"Ġhypothesis":12588,"Ġtight":12589,"Ġsignificance":12590,"Ġëĵľë¦°":12591,"ifications":12592,"Ġintent":12593,"isto":12594,"ìłľì£¼":12595,"ĠìĿ¸ìĽĲ":12596,"Ġpassing":12597,"Ġadapt":12598,"Ġacute":12599,"ĠIndeed":12600,"Array":12601,"ĠìłĢê¸°":12602,"Ġcanc":12603,"ĠÅ":12604,"ĠNever":12605,"Ġyellow":12606,"ĠíİĺìĿ´ìĬ¤":12607,"ĠEnter":12608,"Ġbattery":12609,"Ġusage":12610,"ĠPeter":12611,"zo":12612,"urally":12613,"ivo":12614,"Ġsynd":12615,"ìĹ¬ëŁ¬ë¶Ħ":12616,"Ġsolar":12617,"ĠëĤĺìģľ":12618,"Ġvehicles":12619,"Ġdisplayed":12620,"ê²½ê¸°":12621,"Ġë©ľ":12622,"Ġmsg":12623,"opl":12624,"Inst":12625,"ĠíĶĦë¦¬ë¯¸ìĹĦ":12626,"VD":12627,"unte":12628,"Ġmatters":12629,"ĠSolve":12630,"oral":12631,"Ġdesire":12632,"ëģĿ":12633,"ĠHIV":12634,"Ġíķłê¹ĮìļĶ":12635,"Ġê°ľíĺģ":12636,"Ġrows":12637,"Ġcausing":12638,"frak":12639,"Ġcaught":12640,"Ġsuggesting":12641,"ĠíĶĮëŁ¬ìĬ¤":12642,"ĠëĤļ":12643,"Ġì±Ļê¸°":12644,"inating":12645,"Ġtrend":12646,"Ãł":12647,"Ġacting":12648,"Ġìĺ¤ëŀ«":12649,"AAAA":12650,"Ġtensor":12651,"Ġquot":12652,"Per":12653,"ĠçĤ":12654,"Ġdivision":12655,"ĠìĿ´ê²ĥìłĢê²ĥ":12656,"Ġcoefficient":12657,"Ġhover":12658,"Ġmassive":12659,"Ġproved":12660,"Ġreader":12661,"Ġprovider":12662,"ĠSand":12663,"Ġloading":12664,"ĠPT":12665,"Ġjustice":12666,"Ġê·¸ëĤł":12667,"Ġintermedi":12668,"Ġprinciples":12669,"lectric":12670,"Ġë§µ":12671,"ĠìĦłë°°":12672,"fol":12673,"ĠPers":12674,"ĠìĽĶìļĶìĿ¼":12675,"Ġversions":12676,"Ġamino":12677,"Ġbodies":12678,"Ġcro":12679,"ĠãĢį":12680,"ĠëĬĶëĭ¤ë©´":12681,"aa":12682,"Ġproducing":12683,"Ġleadership":12684,"Ġê²Įëĭ¤ê°Ģ":12685,"ĠìĿ´íĥĪ":12686,"ĠìĪĺì¹ĺ":12687,"max":12688,"Ġmathfrak":12689,"Ġsnow":12690,"jo":12691,"ĠìłģìĿĳ":12692,"íĿĳ":12693,"Ġalgorithms":12694,"Ġì²ĺë²Į":12695,"ĠHuman":12696,"ĠÏĥ":12697,"ĠMinister":12698,"Ġë¬´ê²Į":12699,"Ġhotel":12700,"Ġíĭ±":12701,"Ġfle":12702,"ĠFoundation":12703,"ĠìķĮë¦¬":12704,"Ġsurrounding":12705,"Ġinstitutions":12706,"Ġcharacteristic":12707,"ĠMrs":12708,"ĠìĬ¤íĤ¨":12709,"ĠìĨĲíķ´":12710,"ĠìĬ¤ì¼Ģ":12711,"ĠíĨłë¡ł":12712,"ëª¨ëĵł":12713,"Ġemission":12714,"ĠLA":12715,"js":12716,"Get":12717,"Ġdomestic":12718,"gent":12719,"Ġåĩº":12720,"apse":12721,"Ġapplying":12722,"Ġalk":12723,"ĠìĭĿê°Ĳ":12724,"ĠíĽĦë°ĺ":12725,"cin":12726,"Ġinduc":12727,"Ġæ³":12728,"ematic":12729,"Ġì²ŃìĻĢëĮĢ":12730,"Ġë§¹":12731,"Ġë¬¼ë¦¬":12732,"Ġwheel":12733,"Ġlots":12734,"Ġapps":12735,"Ġshadow":12736,"Ġacademic":12737,"ĠNetwork":12738,"Ġä¿":12739,"Ġmortality":12740,"actor":12741,"ĠëĭĿ":12742,"ĠëĿł":12743,"margin":12744,"Ġìĸ¼ë¥¸":12745,"oder":12746,"ë¥Ń":12747,"ĠSum":12748,"cepts":12749,"Ġdisput":12750,"ãģĻ":12751,"ĠíĬ¹ìĪĺ":12752,"ë¥´íĬ¸":12753,"Ġoriginally":12754,"Ġíľ´ìĭĿ":12755,"ì£¼ìĸ¼":12756,"ĠEducation":12757,"ìĸ´ëĸ¤":12758,"Ġpadding":12759,"ĠWater":12760,"ĠìĨĲê°ĢëĿ½":12761,"idential":12762,"Ġsampling":12763,"ala":12764,"ĠëĦīëĦī":12765,"Ġhybrid":12766,"Log":12767,"ĠMedic":12768,"ëŀĢíĬ¸":12769,"Ġcars":12770,"plify":12771,"######":12772,"ĠìĿ´ë»Ĳ":12773,"EX":12774,"ëĭĪìķĦ":12775,"ĠëĮĢìĦł":12776,"ĠìħĪ":12777,"Ã±":12778,"Ġrightarrow":12779,"ĠRock":12780,"Ġilleg":12781,"ê±¸ìĿ´":12782,"Ġìĭ¬ì§Ģìĸ´":12783,"ì»¤íĶ¼":12784,"ĠíĶ¼ë¡ľ":12785,"Ġë©¤ë²Ħ":12786,"Ġìĥ¤ìĽĮ":12787,"Ġperiods":12788,"Ġë¶ĵ":12789,"Ġdimensions":12790,"Ġlogic":12791,"Over":12792,"str":12793,"Ġloan":12794,"Ġì¢ħì¢ħ":12795,"ë°ĶëŀĮ":12796,"Ġchapter":12797,"åı":12798,"Ġextensive":12799,"ĠíķĺëĤĺíķĺëĤĺ":12800,"Ġsituations":12801,"ĠLake":12802,"ĠManagement":12803,"Ġì£¼ìĤ¬":12804,"Ġdetermining":12805,"missions":12806,"ĠìķĦíĶĪ":12807,"ittle":12808,"Ġexperts":12809,"Ġ-(":12810,"Ġæł":12811,"ĠCup":12812,"ĠíĺĦê¸Ī":12813,"ĠëĤľëĭ¤":12814,"ĠëıħìĦľ":12815,"icate":12816,"Ġwalls":12817,"Ġdedicated":12818,"iler":12819,"ê¹Ģì¹ĺ":12820,"Ġê³ĦìĹ´":12821,"Ġmerely":12822,"Ġyouth":12823,"Then":12824,"íı´":12825,"Ġëį¸":12826,"tac":12827,"Ġmanufacturing":12828,"Ġë¶ĻìĹ¬":12829,"íĤ¤ì§Ģ":12830,"eds":12831,"burg":12832,"uh":12833,"Ġsmallest":12834,"ĠMa":12835,"ìĸ´ìł¸":12836,"ĠPac":12837,"Ġuniversity":12838,"Ġrotation":12839,"ĠìĺĪë¹Ħ":12840,"Pre":12841,"ëĴ¤":12842,"ĠmM":12843,"Ġpatch":12844,"Ġera":12845,"ĠTC":12846,"ĠDB":12847,"ĠìĪĺìĪĺ":12848,"Ġë¹¨ê°Ħ":12849,"ëª¨ëĳĲ":12850,"Ġemotional":12851,"Ġíĺ¸íĿ¡":12852,"Ġíļį":12853,"viron":12854,"Ġpreferred":12855,"Ġalle":12856,"Ġgall":12857,"Ġhardware":12858,"Ġentertain":12859,"Ġíģ´ëŁ½":12860,"ĠÃ¦":12861,"Ġsister":12862,"Ġëĥīìŀ¥ê³ł":12863,"Ġë©Ķëī´íĮĲ":12864,"nt":12865,"Ġì²ľë§Į":12866,"Ġì±Ķ":12867,"Ġprediction":12868,"Ġìŀ¬ìłķ":12869,"ĠìĬ¤íģ¬":12870,"Ġhomes":12871,"ĠìĻ¸êµĲ":12872,"ĠRoad":12873,"ĠLos":12874,"ĠìĿ´ìłł":12875,"Ġê³łëĵ±íķĻêµĲ":12876,"|\\":12877,"iverse":12878,"Ġattributes":12879,"ĠHot":12880,"Ġjourney":12881,"ĠJones":12882,"Ġma":12883,"WS":12884,"Ġabsolutely":12885,"ĠíĶĮëĿ¼":12886,"Ġê¹Ģë°¥":12887,"íĳ":12888,"Ġexecute":12889,"ĠëĶľ":12890,"atern":12891,"ĠCanadian":12892,"Ġ{\"":12893,"Ġì¤Ģëĭ¤ê³ł":12894,"plete":12895,"Ġsti":12896,"Config":12897,"Ġmaintained":12898,"Ġë¡±":12899,"Ġstre":12900,"ĠControl":12901,"ĠMer":12902,"Ġê³¨ëª©":12903,"Ġperm":12904,"Ġneutral":12905,"Ġfee":12906,"ji":12907,"Ġê½Ĥ":12908,"ĠæĢ":12909,"agger":12910,"ilib":12911,"ĠWall":12912,"Ġhelpful":12913,"Ġlig":12914,"Ġfant":12915,"ÑĤÐ¾":12916,"outs":12917,"à¦":12918,"ĠìĤ¬ëĿ¼ì§Ģ":12919,"seud":12920,"Ġìĵ°ëłĪê¸°":12921,"Ġconvert":12922,"ĠClub":12923,"mail":12924,"Ġpreced":12925,"ìĺĪìłĦ":12926,"ĠØ§":12927,"zyme":12928,"Ġdebt":12929,"Ġì§ĳëĭ¨":12930,"Ġê³łê³ł":12931,"ĠÂ«":12932,"Ġmapping":12933,"Ġrg":12934,"ìĿ´ëŁ¬":12935,"kr":12936,"Ġedit":12937,"Ġforget":12938,"Ġë°©ìĹŃ":12939,"Ġinjection":12940,"Ġputting":12941,"Hz":12942,"???":12943,"Ġìĭ¤íĸī":12944,"ì°¾":12945,"Ġenabled":12946,"ĠíĺķìĭĿ":12947,"Ġsomewhat":12948,"Ġcellular":12949,"à®":12950,"Ġforest":12951,"ele":12952,"ĠCreate":12953,"Ġìľłë°ľ":12954,"ĠìĨĮê³łê¸°":12955,"Ġ*(-":12956,"ĠMake":12957,"Ġbuildings":12958,"ĠìĬ¤íħĮìĿ´íģ¬":12959,"ì¦Ĳ":12960,"ĠLook":12961,"ì§ķìĸ´":12962,"Ġë¡ľìį¨":12963,"Ġhonest":12964,"Ġinters":12965,"icts":12966,"External":12967,"Ġnam":12968,"Ġconstraints":12969,"unicip":12970,"Ġíģ¬ë¡ľ":12971,"Ġpig":12972,"ĠMont":12973,"Ġê»į":12974,"Ġê³łë§Ļ":12975,"Ġkinds":12976,"idity":12977,"ĠBase":12978,"ĠìĪ«":12979,"Ġì¡°ë¦¬":12980,"Ġpathway":12981,"coin":12982,"ĠCF":12983,"je":12984,"Ġê·¸ëŁ°ê°Ģ":12985,"ë§ĪìĿĮ":12986,"Ġë³µíķ©":12987,"Ġëĵ¤ë¦¬":12988,"ĠOld":12989,"ì¨Į":12990,"Ġanswers":12991,"Ġperp":12992,"Ġserving":12993,"Info":12994,"Ġscient":12995,"Ġrepresentative":12996,"uan":12997,"ĠíĬ¸ëłĪìĿ´":12998,"ete":12999,"afe":13000,"Ġíħľ":13001,"Ġburden":13002,"Ġstead":13003,"Read":13004,"mm":13005,"ĠJournal":13006,"Ġë¶Ģì§Ģ":13007,"Ġkr":13008,"Although":13009,"GC":13010,"ê°Ģìŀ¥":13011,"Ġpreparation":13012,"ĠRT":13013,"Ġìį¬":13014,"Ġlogin":13015,"Ġë¦°":13016,"Ġbrown":13017,"ĠìľĦë°ĺ":13018,"ĠëĪĪì¹ĺ":13019,"ì°ľ":13020,"Ġëª¨ìĹ¬":13021,"cur":13022,"Ġì¶ľìĤ°":13023,"ĠAcadem":13024,"Ġêµ¬ìĹŃ":13025,"Ġfiber":13026,"Ġcam":13027,"Ġargues":13028,"Ġíİ´":13029,"PP":13030,"Ġtheoretical":13031,"Ġhundreds":13032,"olean":13033,"ĠìĿ¸ê³µ":13034,"Ġemergency":13035,"ĠAndroid":13036,"ĠLear":13037,"Ġgoods":13038,"Ġidentical":13039,"Ġìĥīê¹Ķ":13040,"omorph":13041,"Ġê°ķìĤ¬":13042,"vi":13043,"Ġrein":13044,"ĠCare":13045,"ĠNY":13046,"Ġëĥ¥":13047,"ayout":13048,"Ġdepart":13049,"ĠíķĻê¸°":13050,"Ġworry":13051,"Ġxe":13052,"angu":13053,"Ġpermit":13054,"ĠThree":13055,"Ġrealized":13056,"ĠìµľìłĢ":13057,"title":13058,"ĠëıĻìĿĺ":13059,"Ġstroke":13060,"Ġta":13061,"omer":13062,"Ġbear":13063,"Ġclassical":13064,"ĠìŀĦê¸Ī":13065,"Ġëĭ´ë°°":13066,"Ġcorrectly":13067,"Ġvideos":13068,"ĠOK":13069,"Ġconversion":13070,"ĠìĪĺê°ķ":13071,"ìĿĺìĽĲ":13072,"Ġcomplexity":13073,"Ġrect":13074,"ĠìĤ¬ìłķ":13075,"Ġë¬´ìĹŃ":13076,"Ġ${":13077,"Ġtrained":13078,"ĠEngine":13079,"ĠHR":13080,"Ġspr":13081,"Ġseparated":13082,"Ġperforming":13083,"Ġìĸ´ëĸ¨":13084,"Ġglucose":13085,"Ġrobust":13086,"Ġfruit":13087,"Ġconsumer":13088,"ĠÂĤ":13089,"ëŀį":13090,"Ġê°ĵ":13091,"ko":13092,"ĠInf":13093,"che":13094,"Ġcandidates":13095,"Ġfed":13096,"lymp":13097,"Ġsett":13098,"ë®¤":13099,"Ġdisorder":13100,"Ġì¸¡ìłķ":13101,"Ġplugin":13102,"ĠíĪ¬ìŀħ":13103,"Ġëª¨ì§ĳ":13104,"Ġwine":13105,"Ġpointed":13106,"ĠíĢĦë¦¬íĭ°":13107,"Ġcrystal":13108,"\\*":13109,"Ġpepti":13110,"ëĤłìĶ¨":13111,"ĠëıĦìĦľê´Ģ":13112,"ĠArmy":13113,"ĠëĭĪê¹ĮìļĶ":13114,"Ġslowly":13115,"Ġë³¶ìĿĮë°¥":13116,"umps":13117,"auty":13118,"Ġìĥģê°Ģ":13119,"Ġê°Īëĵ±":13120,"rium":13121,"group":13122,"Ġdiabetes":13123,"Ġaver":13124,"ĠíĶ¼íķĺ":13125,"itt":13126,"Ġinputs":13127,"ĠìłĦëħĦ":13128,"ommod":13129,"Ġinfras":13130,"Ùħ":13131,"ĠCas":13132,"Ġdemocr":13133,"Ġì¦Ŀëªħ":13134,"Ġchecked":13135,"Ġexecution":13136,"Ġìłķëĭ¹":13137,"Ġfurn":13138,"ëĵľë¦¬":13139,"Ġì´Ŀë¦¬":13140,"ëĵľëĶĶìĸ´":13141,"ì§±":13142,"Ġgradient":13143,"Ġì¸ł":13144,"Ġrational":13145,"uters":13146,"ë¯¸êµŃ":13147,"Ġarrow":13148,"Ġdialog":13149,"ë±":13150,"ĠìĨĮì£¼":13151,"ãĥ³ãĤ":13152,"car":13153,"Ġcoupling":13154,"ĠëıĻë°ĺ":13155,"Ġë¹Ħë¹Ķ":13156,"ĠLambda":13157,"ĠìĽĲì¹Ļ":13158,"Ġstem":13159,"ĠYOU":13160,"ĠTen":13161,"ĠíĬľ":13162,"ĠInte":13163,"ĠFL":13164,"ĠCard":13165,"Ġutils":13166,"íķĺíķĺ":13167,"ìĪŃ":13168,"ĠíĮĮíģ¬":13169,"More":13170,"Ġê±į":13171,"Ġlegisl":13172,"$,":13173,"ĠChristmas":13174,"Ġspending":13175,"Ġprivacy":13176,"ĠìĦ¼ìĬ¤":13177,"Ġacquired":13178,"ircraft":13179,"Ġê·¹ë³µ":13180,"Ġfacility":13181,"Ġfro":13182,"entials":13183,"Ġwealth":13184,"ĠíļŁ":13185,"ĠìłĦì£¼":13186,"ĠìĤ¬ìĹħìŀĲ":13187,"Ġchoices":13188,"Ġì¶Ķì¶ľ":13189,"Code":13190,"Ã¢":13191,"Ġinstances":13192,"Ġscenario":13193,"gence":13194,"Ġrapidly":13195,"íķŃìĥģ":13196,"Ġisland":13197,"Ġë¹Ħíĸīê¸°":13198,"Ġê°ĳëĭĪëĭ¤":13199,"Ġconscious":13200,"Ġtxt":13201,"Color":13202,"ĠíİĺìĿ´ì§Ģ":13203,"Ġtransf":13204,"ĠLee":13205,"Ġì¡°íĻĶ":13206,"Ġstatistics":13207,"Ġfilename":13208,"Ġë§¨ëĤł":13209,"ĠíĥĢìĿ´ìĸ´":13210,"umes":13211,"Ġìĸ´ëĳĲ":13212,"ĠOffic":13213,"Ġslot":13214,"Another":13215,"Ġsurfaces":13216,"ëĤĺë¬¼":13217,"ëĭ¤ìĸĳ":13218,"Ġselling":13219,"ĠìĿ´ë¥¸":13220,"Ġë°ľëĭ¬":13221,".\"":13222,"road":13223,"ĠìĿ´ëª¨":13224,"ëĤ´ìĿ¼":13225,"abs":13226,"uer":13227,"Ġeducational":13228,"Ġreb":13229,"ĠDO":13230,"-----":13231,"Ġë¶ĢëĮĢ":13232,"ancer":13233,"ibilities":13234,"ĠëĤ´ëĨĵ":13235,"ĠJustice":13236,"Which":13237,"ju":13238,"ĠæĽ":13239,"Ġthor":13240,"Ġcentre":13241,"tosis":13242,"Ġä¸Ĭ":13243,"ĠMur":13244,"ĠWood":13245,"Ġregistered":13246,"Simplify":13247,"Ġexcited":13248,"ĠíĮ¨íĦ´":13249,"ĠìĻłì§Ģ":13250,"ĠResults":13251,"iological":13252,"ride":13253,"ë¬¼ê´Ģ":13254,"ĠìłĦìĦ¸":13255,"Ġassumption":13256,"ĠAdditionally":13257,"estival":13258,"Ġìĭłëĭ¤":13259,"Ġtestified":13260,"ìķī":13261,"ëŁ¼íĶĦ":13262,"Ġëĭ¨ìłĲ":13263,"igan":13264,"Ġnurs":13265,"ilty":13266,"Ġschem":13267,"ocker":13268,"isco":13269,"ifer":13270,"Ġopt":13271,"emia":13272,"ĠNov":13273,"Ġëĭ¤íĸīíŀĪ":13274,"ë¬´ì§Ģ":13275,"ĠArray":13276,"Ġë§ĮëĤł":13277,"Ġìĺ®ê²¨":13278,"Ġsuperior":13279,"Ġë°ĶìĿ´ìĺ¤":13280,"ĠAuthor":13281,"Ġtill":13282,"Ġëª»íķ´":13283,"Ġpulled":13284,"Ġìĭ¤íĹĺ":13285,"Ġtrouble":13286,"ĠHE":13287,"BO":13288,"Ġë°°ê³ł":13289,"riers":13290,"Ġcalculate":13291,"ĠTuesday":13292,"ĠìĪĺìłľ":13293,"Box":13294,"Ġadm":13295,"Ġë¬´ëł¤":13296,"Ġ|\\":13297,"erman":13298,"Ġë¯¿ìĿĮ":13299,"Ġê¸°ìļ¸":13300,"Ġinteract":13301,"Ġvitro":13302,"Ġ&&(":13303,"osity":13304,"Ġìķ¨ë²Ķ":13305,"ĠìĨĮíĶĦíĬ¸":13306,"ÙĪ":13307,"vals":13308,"Ġë©¸":13309,"ictory":13310,"Ġì¤ĳìĨĮê¸°ìĹħ":13311,"utch":13312,"Ġodds":13313,"íİľ":13314,"Ġê°±":13315,"etic":13316,"Ġmagnitude":13317,"Ġ<<":13318,"Ġultr":13319,"ĠìłĦëł¥":13320,"Ġdiversity":13321,"ĠíļĮëĭ´":13322,"ĠëĦ¤íĬ¸":13323,"Ġsynthesis":13324,"Ġëĭ®":13325,"Ġclosest":13326,"Ġinterven":13327,"Ġaccordance":13328,"Ġìłģíķ©":13329,"-------":13330,"Ġexplanation":13331,"ĠëĤĺìĦ°":13332,"Ġoptional":13333,"Ġëł":13334,"Ġkitchen":13335,"ĠìĥĪëģ¼":13336,"ĠOrgan":13337,"Ġçľ":13338,"Ġincred":13339,"ìĿ´ê²Į":13340,"ĠíĺĪìķ¡":13341,"ĠMexico":13342,"ruit":13343,"yan":13344,"ĠìĹ¼ì¦Ŀ":13345,"Ġexit":13346,"Ġdifferential":13347,"Click":13348,"ĠÐ´":13349,"ĠPE":13350,"Ġëī´ìļķ":13351,"ĠìĦłìĸ¸":13352,"Ġì½Ķë¦¬ìķĦ":13353,"ĠÂĹ":13354,"Ġè¯":13355,"Ġimmediate":13356,"Ġmilk":13357,"iament":13358,"ĠPenn":13359,"ĠìłĦê³µ":13360,"Ġç«":13361,"Ġldots":13362,"ĠìıĻ":13363,"ĠíĤ¤ìĽĮ":13364,"ĠAustralian":13365,"Ġsom":13366,"Ġpolitics":13367,"ĠìĹ¼ìĥī":13368,"ĠìĦ¸ìĽĶ":13369,"ĠÎ»":13370,"Ġuna":13371,"Ġdiscovery":13372,"Ġìĥ´íĳ¸":13373,"Ġê²¨ìļ°":13374,"ĠëĤ´ê²Į":13375,"ĠHS":13376,"process":13377,"Ġcontributions":13378,"Ġdrag":13379,"Ġnumerical":13380,"ĠëĵĢ":13381,"fil":13382,"Ġì±Ħìļ©":13383,"ĠÎĶ":13384,"Ġìŀħëł¥":13385,"ĠíĪ¬ìŀĲìŀĲ":13386,"Ġmatches":13387,"ĠìŀĺëĿ¼":13388,"Ġvit":13389,"Ġfly":13390,"Ġcrucial":13391,"Ġtrace":13392,"everal":13393,"ãĤ¢":13394,"Ġrespective":13395,"zer":13396,"Ġreporting":13397,"Ġë§ĮëĤ¨":13398,"ĠJul":13399,"ÏĦ":13400,"eller":13401,"Ġdram":13402,"fficients":13403,"Ġhur":13404,"Ġìĭ¤ìŀ¥":13405,"Ġ-->":13406,"usters":13407,"ĠFind":13408,"Ġchlor":13409,"ĠTM":13410,"Ġëª¨ëĵľ":13411,"Ġtrav":13412,"ĠChampions":13413,"Ġìŀ¼":13414,"mar":13415,"Ġmanip":13416,"Ġjpg":13417,"Ġspoke":13418,"Ġë°ľìĸ¸":13419,"Ġcompute":13420,"Ġkappa":13421,"Ġå¿":13422,"Ġengineering":13423,"font":13424,"oung":13425,"Ġkick":13426,"Request":13427,"Ġì¶ľìłĦ":13428,"ecks":13429,"ĠAri":13430,"Ġcasino":13431,"Ġë²łíĬ¸ëĤ¨":13432,"Ġìļ©íĴĪ":13433,"auss":13434,"ĠíĽĮë¥Ń":13435,"Ġow":13436,"Ġë±ħ":13437,"íķĺìļ°":13438,"Ġê°Ĳê°ģ":13439,"ĠìĥĿê¸¸":13440,"Ġìŀ¥ìĭĿ":13441,"Ġsurg":13442,"Ġsky":13443,"Ġtube":13444,"ë¿į":13445,"Ġretail":13446,"Ġmodes":13447,"posed":13448,"Ġtranscription":13449,"ALL":13450,"ĠDirector":13451,"ëĲĺ":13452,"Ġì¦Ĳê²¨":13453,"Ġê³³ê³³":13454,"Ġà¸":13455,"ìľ¼ë¡ľ":13456,"Ġviolation":13457,"Ġdamages":13458,"Ġdots":13459,"ĠChief":13460,"Ġìľłê¸°":13461,"Ġì£¼ê¸°":13462,"Ġconsequences":13463,"Ġcycl":13464,"tomy":13465,"Ġì¿łíĤ¤":13466,"ĠCharles":13467,"Ġfinger":13468,"Ġsongs":13469,"Ġìĺ¤íĶĦ":13470,"ĠIF":13471,"========================":13472,"ĠEM":13473,"ques":13474,"ĠìĭľëĤ´":13475,"Ġgift":13476,"ĠìĪĺë¹Ħ":13477,"ĠíĿł":13478,"Ġvibr":13479,"Ġant":13480,"ìĿ´ì¦Ī":13481,"ĠíĿ¥ë¯¸":13482,"Ġlies":13483,"ilton":13484,"BQ":13485,"ĠLast":13486,"Ġtranslation":13487,"nergy":13488,"Ġentr":13489,"Ġê´ĢëŀĮ":13490,"Ġìį¨ìķ¼":13491,"pes":13492,"Ġê·¸ëŀ¨":13493,"Ġê´ľíŀĪ":13494,"ĠReal":13495,"Ġë¹Ĺ":13496,"ìĹī":13497,"Ġëĭ¨ìľĦ":13498,"Ġagric":13499,"ĠDivision":13500,"ê°Ħëĭ¤":13501,"Ġë¬´ì²Ļ":13502,"ĠìĦ¸ê¸°":13503,"Ġìľłíĺķ":13504,"ĠRight":13505,"Ġdangerous":13506,"Ġcorporate":13507,"ê°ĲìĤ¬":13508,"ĠOlymp":13509,"vironment":13510,"Ġpaths":13511,"ĠëĿ¼ìļ´ëĵľ":13512,"isk":13513,"Ġprepare":13514,"ĠëĤľë¦¬":13515,"Ġcoding":13516,"Ġbare":13517,"ìĽĮíģ¬":13518,"Ġsurve":13519,"ĠJim":13520,"BL":13521,"Ġæµ":13522,"Ġnormally":13523,"Ġoperators":13524,"ĠíĮ¨íĤ¤ì§Ģ":13525,"Ġinh":13526,"Ġê¸°ìĹ¬":13527,"normal":13528,"Ġwet":13529,"Pr":13530,"Ġadmitted":13531,"Ġì±ĦìĨĮ":13532,"Ġmachines":13533,"ati":13534,"Ġë²ĦíĦ°":13535,"Ġho":13536,"Ġessentially":13537,"ĠìłĦìĽĲ":13538,"ë¥¨":13539,"ĠThose":13540,"Sp":13541,"Ġê¸ĪìļĶìĿ¼":13542,"ema":13543,"ë°ĺì°¬":13544,"ĠìľłìķĦ":13545,"ìĿ´ëĦĪ":13546,"Ġë·°íĭ°":13547,"ĠíĶĮëŀĢíĬ¸":13548,"ĠOl":13549,"ĠEV":13550,"Ġpartition":13551,"ĠAu":13552,"ĠÏĢ":13553,"ìĿ¼ë³¸":13554,"ĠÂ¶":13555,"isters":13556,"astern":13557,"Ġwalked":13558,"Property":13559,"anges":13560,"ĠìĿ¸íĺķ":13561,"value":13562,"organ":13563,"irable":13564,"ĠRS":13565,"ĠìľłëĭĪ":13566,"Ġ`.":13567,"ĠMaybe":13568,"okes":13569,"Ġcomputed":13570,"Exception":13571,"ĠMedical":13572,"Ġweights":13573,"Ġìĺ¤ìĹ¼":13574,"Ġprogramming":13575,"ĠìłĢëłĩê²Į":13576,"Ġexports":13577,"ĠìķĦìĿ´íı°":13578,"áĢ":13579,"Ġtelling":13580,"elial":13581,"Ġíĥľìĸĳ":13582,"Ġresolve":13583,"Ġaz":13584,"ĠCustom":13585,"Ġcounts":13586,"ĠMT":13587,"Ġcus":13588,"Hand":13589,"ogenic":13590,"anol":13591,"vin":13592,"Ġneighborhood":13593,"Ġì°Ĳ":13594,"Ġbridge":13595,"ÐµÑĢ":13596,"GE":13597,"ĠmRNA":13598,"Ġhorizontal":13599,"Ġidx":13600,"Ġhook":13601,"Ġíķľê³Ħ":13602,"Ġpapers":13603,"Ġdegrad":13604,"ëĳĳ":13605,"Ġdjango":13606,"Ġoperate":13607,"Ġë¶ĢìĿ¸":13608,"Ġstone":13609,"Ġosc":13610,"Ġguidelines":13611,"igned":13612,"ìļ´ëıĻ":13613,"Ġcataly":13614,"atrix":13615,"Ġchart":13616,"ë£¸":13617,"Ġnarr":13618,"Do":13619,"Ġthousand":13620,"Ġrh":13621,"bur":13622,"iro":13623,"Ġsharp":13624,"Ġë§¤ëħĦ":13625,"Äģ":13626,"Ġingred":13627,"Ġterrit":13628,"tech":13629,"Ġìľłíĸī":13630,"ĠShow":13631,"ĠMuslim":13632,"tible":13633,"Ġì¡°ìĸ¸":13634,"ê»ĳ":13635,"ë»¤":13636,"Image":13637,"Ġknock":13638,"Ġcarrying":13639,"Ġ^.":13640,"ĠBefore":13641,"ĠLove":13642,"ĠThursday":13643,"pack":13644,"['":13645,"Rep":13646,"Ġë³´ìŀħëĭĪëĭ¤":13647,"ë©Ķëī´":13648,"Ġë¿Įëł¤":13649,"ĠEp":13650,"Ġauthorities":13651,"Ġ\"}.":13652,"Reg":13653,"Ġpresentation":13654,"ĠPass":13655,"http":13656,"Ġëĵ¤ìĸ´ê°Ī":13657,"Ġscroll":13658,"ĠìĽĢì§ģìŀĦ":13659,"ĠìĹ¬ëĵľë¦Ħ":13660,"Ġbought":13661,"ĠHa":13662,"Ġcomfortable":13663,"Ġreviewed":13664,"fall":13665,"inite":13666,"Ġíļ¨ëĬ¥":13667,"Ġcoefficients":13668,"Ġdiscretion":13669,"Ġcomposed":13670,"Ġíķı":13671,"ìºĲ":13672,"apeutic":13673,"Ġê³¨ëĿ¼":13674,"Ġcognitive":13675,"Ġaer":13676,"Ġpublication":13677,"ìĦ¬":13678,"Ġtreatments":13679,"ROM":13680,"ĠEth":13681,"Ġvalidation":13682,"Ġescape":13683,"phen":13684,"Ġpowers":13685,"ĠìĪľìĦľ":13686,"ĠGB":13687,"ë°±ì§Ī":13688,"Ġë§¤ì½¤":13689,"ĠYe":13690,"ERE":13691,"ountain":13692,"uccess":13693,"Ġìłĳìĭľ":13694,"Ġexem":13695,"ìķĦëŀĺ":13696,"Ġbigger":13697,"Ġinval":13698,"ĠMulti":13699,"Ġrequested":13700,"ĠíĥľëıĦ":13701,"ĠìĽħ":13702,"prise":13703,"Ġfluores":13704,"Ġtip":13705,"Ġextreme":13706,"ë¦¬íĬ¸":13707,"ë¬ĺ":13708,"Ġíľ´ëĮĢíı°":13709,"Ġëĵ¤ìĸ´ìĻĶ":13710,"Ġrenew":13711,"ĠìĦ¸ìļ°":13712,"ìĹ¬íĸī":13713,"ĠMartin":13714,"ĠDoes":13715,"Ġexplo":13716,"ĠìĿ´ë¡ł":13717,"Ġargued":13718,"Ġweekend":13719,"ĠNon":13720,"Ġëŀľ":13721,"ĠìĹ°ì£¼":13722,"Ġintroduction":13723,"ëŁ¬ìĽĮ":13724,"ĠëĨĢëŀĲ":13725,"Ġaccommod":13726,"Ġfinds":13727,"ĠíĹĪìļ©":13728,"Ġìºłíķĳ":13729,"ê°ĻìĿ´":13730,"idents":13731,"Ġcoupled":13732,"ĠPhi":13733,"Ġlists":13734,"ĠìĿ´ìĬ¤":13735,"ears":13736,"ĠìĹ¬ê¸°ìłĢê¸°":13737,"Ġì²ĺë¶Ħ":13738,"Ġnoticed":13739,"Ġcutting":13740,"Ġconnections":13741,"Ġë¬¸ìŀ¥":13742,"Ġinequ":13743,"Ġtwe":13744,"Ġê²½ìŁģëł¥":13745,"ĠMcC":13746,"CTION":13747,"ĠThank":13748,"Ġbb":13749,"Ġvoc":13750,"onts":13751,"Ġintroduce":13752,"Ġposted":13753,"Ġmaxim":13754,"Ġplanned":13755,"Ġsaved":13756,"Ġarc":13757,"icken":13758,"Ġ'-":13759,"Ġíĳ¸ì§Ĳ":13760,"ì³ĲìĦľ":13761,"Ġvulner":13762,"Ġultimately":13763,"Ġçİ":13764,"Ġfunc":13765,"ìĿ´ìĥģ":13766,"Ġè¡Į":13767,"Ġáħ³":13768,"ìĭľìĬ¤":13769,"Ġë²ĦìĦ¯":13770,"liament":13771,"Ġmediated":13772,"ĠCommon":13773,"ĠìĹ°ê¸Ī":13774,"Ġë²ĦìłĦ":13775,"Ġquantity":13776,"rison":13777,"ĠLim":13778,"Ġincreasingly":13779,"Ġpand":13780,"Ġcoh":13781,"Ġsod":13782,"Ġíģ´ëŀĺìĬ¤":13783,"Ġodd":13784,"Ġsimulations":13785,"ĠRam":13786,"Ġë¯¸ìļ©ìĭ¤":13787,"lements":13788,"Ġtissues":13789,"Ġë¶ĻìĿ´":13790,"Ġë§Īì¹¨":13791,"cribed":13792,"ĠWomen":13793,"Ġdropped":13794,"ĠItalian":13795,"Ġfraud":13796,"Ġç»":13797,"gia":13798,"Ġê¸°ìļ´":13799,"lects":13800,"ĠPolicy":13801,"olars":13802,"Ġì§¬ë½ķ":13803,"ë§İìĿ´":13804,"Ġbund":13805,"ĠBL":13806,"ĠíıīìĿ¼":13807,"Ġë¦¬ì¡°":13808,"Sec":13809,"Ġcreative":13810,"Ġtells":13811,"Ġupdates":13812,"Ġì©":13813,"ĠíĮĿ":13814,"ëŃĶê°Ģ":13815,"ideo":13816,"ìĹ¬ë¦Ħ":13817,"Ġhide":13818,"Ġplaintiffs":13819,"Ġargue":13820,"tent":13821,"ĠWednesday":13822,"Ġblow":13823,"Ġchat":13824,"Ġrealize":13825,"Context":13826,"EY":13827,"comp":13828,"Ġë°Ķìģĺ":13829,"Ġhydrogen":13830,"Ġapparently":13831,"Ġwonderful":13832,"ikes":13833,"ìħĶìĦľ":13834,"awn":13835,"ìĻĦìłĦ":13836,"ĠLuc":13837,"ìĭ¤ìłľ":13838,"Ġsubmitted":13839,"Ġìļķìĭ¬":13840,"Ġsucceed":13841,"Ġguilty":13842,"Ġseparation":13843,"æĪ":13844,"Ġ}/":13845,"Ġì¶¤":13846,"Ġìŀ¬ìĥĿ":13847,"Ġroof":13848,"ĠìĬ¤ì¹´":13849,"Ġìĭ¬íķľ":13850,"alog":13851,"Ġknowing":13852,"Ġìľµ":13853,"Ġattempts":13854,"Ġanalyze":13855,"Ġturning":13856,"Ġpu":13857,"Ġdocumentation":13858,"iger":13859,"Ġë¶ĢëĵľëŁ¬ìļ´":13860,"Before":13861,"Ġinvari":13862,"Ġ>=":13863,"Ġquantit":13864,"rect":13865,"Ġalgebra":13866,"after":13867,"Ġåľ°":13868,"Ġë°Ķë¥¸":13869,"Ġcallback":13870,"ĠìĬ¤íĥ":13871,"IB":13872,"ĠìķĪì£¼":13873,"Ġëĸ¨ìĸ´ì§Ħ":13874,"ĠëĬĺìĸ´":13875,"Ġìĸ´ëł¤ìĽĮ":13876,"ĠAff":13877,"Ġä¼ļ":13878,"EA":13879,"ĠDescription":13880,"ĠML":13881,"ĠAction":13882,"ĠSpecial":13883,"Ġpermission":13884,"ectiveness":13885,"ĠSpanish":13886,"Ġintelligence":13887,"Ġpassion":13888,"cm":13889,"ĠOption":13890,"Ġìļ´íĸī":13891,"Ġsignature":13892,"Ġë°ĿíĺĢ":13893,"Ġcompact":13894,"Ġë§¤ìŀħ":13895,"Ġexecutive":13896,"Ġsignaling":13897,"Ġprofiles":13898,"porary":13899,"Ġinflammatory":13900,"ĠìłĢë²Ī":13901,"Ġëı¼ìļĶ":13902,"Ġvaluable":13903,"scape":13904,"ìĺģíĻĶ":13905,"Ġì¡°ê¸°":13906,"Ġ+/":13907,"ëĮĢíĳľ":13908,"Ġwebkit":13909,"ê²ł":13910,"Ġë§Īì¼ĵ":13911,"ĠGP":13912,"Ġê°Ģëł¤":13913,"Ġæİ":13914,"ĠìķĦë©Ķë¦¬ì¹´":13915,"ĠHistory":13916,"ĠMean":13917,"Ġleaf":13918,"Ġchamber":13919,"Ãº":13920,"Ġadvoc":13921,"Ġtotally":13922,"Ġë°ĺëıĦ":13923,"Ġphr":13924,"Ġlens":13925,"ĠHead":13926,"Ġì²´ìłľ":13927,"âĺ":13928,"Ġë¬¸íķĻ":13929,"Ġinfrastructure":13930,"ductor":13931,"Ġcurves":13932,"ĠStart":13933,"Ġbool":13934,"ilibrium":13935,"Ġrisks":13936,"Ġëħ¸íķĺìļ°":13937,"ĠAnalysis":13938,"Ġdecor":13939,"Ġë¦¬ëįĶ":13940,"ì§Īë¬¸":13941,"Ġê°ĢìĪĺ":13942,"Ġcoc":13943,"Ĥ¬":13944,"ëĮĢì²´":13945,"Ġretro":13946,"Ġë¯¼ì¡±":13947,"Ġëı¼ìĦľ":13948,"Ġë³´ìķĪ":13949,"Ġpolitic":13950,"ĠHaw":13951,"Ġ},\\":13952,"ĠëłĮì¦Ī":13953,"Ġflash":13954,"xiety":13955,"Ġwound":13956,"Ġíķ´ìķ¼ì§Ģ":13957,"Ġsilver":13958,"Ġrepresenting":13959,"oli":13960,"razil":13961,"Ġcertific":13962,"ptions":13963,"Ġsemi":13964,"Ġtags":13965,"Ġspecim":13966,"ìłĲìĭ¬":13967,"ĠìĹ°ê³Ħ":13968,"Ġshaped":13969,"Ġ{},":13970,"Ġì¤Ħìĸ´ëĵ¤":13971,"ĠÎ´":13972,"Ġinsert":13973,"Ġì¢ħêµĲ":13974,"Ġreward":13975,"Ġspectra":13976,"Ġhighl":13977,"íĶĮëłĪìĿ´":13978,"Ġeld":13979,"Ġmatching":13980,"ĠìŀĳëıĻ":13981,"Ġë°ķë¬¼ê´Ģ":13982,"Ġcoron":13983,"ĠêµŃìłķ":13984,"Ġstores":13985,"oir":13986,"Ġclassic":13987,"Ġexport":13988,"ĠTown":13989,"Ġinqu":13990,"Ġdiscipl":13991,"ìĸ¸ê°Ģ":13992,"ACK":13993,"tial":13994,"ĠMM":13995,"ropy":13996,"ĠMusic":13997,"Ġjack":13998,"Ġvariations":13999,"orne":14000,"Ġregulations":14001,"Ġê°ķìłľ":14002,"Ġë§ĮëĳĲ":14003,"Ãĥ":14004,"Ġavailability":14005,"Ġì±Ħê¶Į":14006,"ëļĿ":14007,"Ġconsumers":14008,"Ġnewsp":14009,"íķ©ëĭĪëĭ¤":14010,"Ġtransferred":14011,"Ġê±¸ëł¸":14012,"Ġëĺ¥":14013,"ĠExt":14014,"ë¡ľëĵľ":14015,"Ġintel":14016,"Ġì¹¼êµŃìĪĺ":14017,"ĠVirginia":14018,"Ġorientation":14019,"ĠìĹ°ë§Ĳ":14020,"Ġì´Īì½ľ":14021,"ĠìĬ¹ìĿ¸":14022,"Ġ}-":14023,"äºº":14024,"ailed":14025,"ĠçĶŁ":14026,"Ġë°©íķĻ":14027,"ĠìķĦëĿ¼":14028,"Ġdollars":14029,"Ġlaboratory":14030,"Ġíģ´ë¦¬":14031,"ĠìĪĺë©´":14032,"Ġê²¬ìłģ":14033,"ĠSqu":14034,"nd":14035,"Ġrecognize":14036,"ĠìĪ«ìŀĲ":14037,"eft":14038,"Comm":14039,"Ġconsole":14040,"ira":14041,"Ġpurchased":14042,"Ġdrivers":14043,"Ġdischarge":14044,"Ġpromise":14045,"Ġsummar":14046,"thyl":14047,"Ass":14048,"Ġëª»íķł":14049,"Ġëĸ¨ìĸ´ìł¸":14050,"ĠëĮĢìŀ¥":14051,"ìŀĳìļ©":14052,"Ġê·ľì¹Ļ":14053,"ĠCur":14054,"ĠìĹ´ìłķ":14055,"Ġparticipate":14056,"ĠReturn":14057,"Cons":14058,"Ġcarefully":14059,"Ġëĭ·":14060,"Ġç¾":14061,"Ġannot":14062,"Ġcoal":14063,"Ġê·¼ê±°":14064,"Test":14065,"Ġìķ¼ìĻ¸":14066,"ãģĵãģ¨":14067,"Query":14068,"issions":14069,"ĠLight":14070,"ĠíĬ¹ìĿ´":14071,"Ġfounded":14072,"Ġboys":14073,"Ġcounty":14074,"Ġëĭ¤ìĦ¯":14075,"Ġcomprehensive":14076,"Ġaircraft":14077,"idem":14078,"ĠImp":14079,"ĠëıĻë£Į":14080,"char":14081,"Ġeating":14082,"ĠëĳĺëŁ¬ë³´":14083,"ĠâĻ¡":14084,"Ġimper":14085,"Ġoffense":14086,"Ġì¨":14087,"ĠíĮĢìŀ¥":14088,"&\\":14089,"ë£¨ìħĺ":14090,"Ġworst":14091,"ì£¼ë§Ĳ":14092,"night":14093,"ì¹´íİĺ":14094,"ĠìĿĺíķľ":14095,"Ġmanual":14096,"ĠBob":14097,"Ġë¬´ì§Ģ":14098,"Ġìłľë°ľ":14099,"ĠìķħíĻĶ":14100,"ĠíĨłì§Ģ":14101,"Ġcomplicated":14102,"ĠìŀĲìĭĿ":14103,"ĠÃ¨":14104,"ĠìĹĦì²ŃëĤĺ":14105,"Ġíİ¸ìĿĺìłĲ":14106,"elihood":14107,"ĠìĿĺíļĮ":14108,"ĠPi":14109,"ê°Ģì¡±":14110,"Ġpour":14111,"Ġstyles":14112,"onia":14113,"Ġvast":14114,"iner":14115,"ĠìĨĮë¬¸":14116,"Ġwaves":14117,"ĠìĤ¼ìĦ±ìłĦìŀĲ":14118,"Ġkeyword":14119,"ëį¤":14120,"ë´¤":14121,"aze":14122,"Ġtt":14123,"Ġtemp":14124,"Ġwelcome":14125,"Ġgrew":14126,"Ġê²½ëĤ¨":14127,"Ġmarg":14128,"Ġstands":14129,"Ġcalculation":14130,"endar":14131,"Ġê°Ĳìĥģ":14132,"Øª":14133,"ĠEvent":14134,"Ġlaunched":14135,"Ġreflection":14136,"Ġê¹ľì§Ŀ":14137,"ĠPython":14138,"ador":14139,"DI":14140,"Ġìĺ¤íĨł":14141,"Ġpolym":14142,"iders":14143,"jective":14144,"rey":14145,"ĠSW":14146,"Ġplanet":14147,"ĠíĦ°ì§Ģ":14148,"Ġ}},":14149,"Ġíľł":14150,"Ġinfected":14151,"Ġsurgical":14152,"Ġfaces":14153,"Ġ}}{":14154,"Ġì²´ì¤ĳ":14155,"Ġencoding":14156,"ĠTN":14157,"Ġë¶ķ":14158,"ĠConf":14159,"aks":14160,"Ġvolunte":14161,"ĠëĦĮ":14162,"Ġantibody":14163,"Ġbegins":14164,"Ġcrypto":14165,"ĠTS":14166,"Ġengaged":14167,"<!":14168,"Ġskill":14169,"Ġì·¨íķĺ":14170,"ĠBit":14171,"ĠëĦĺì¹ĺ":14172,"Ġaddressed":14173,"Ġæ²":14174,"Ġoscill":14175,"ĠGL":14176,"ĠCu":14177,"ëĵ¤ìĿ´":14178,"ë©¸":14179,"ĠJo":14180,"ĠíĹ¬ìĬ¤":14181,"Ġë§ĪìĦ¸ìļĶ":14182,"ëķħ":14183,"ÐµÑĤ":14184,"Ġhighlight":14185,"ĠìĿĢê·¼":14186,"code":14187,"Can":14188,"yr":14189,"ĠëĪĦëĤĺ":14190,"Ġtaste":14191,"Ġpermanent":14192,"ounder":14193,"Ġì§ł":14194,"Ġëªħëł¹":14195,"Group":14196,"åº":14197,"asi":14198,"Ġìķµ":14199,"Ġdepression":14200,"Ġactivated":14201,"ĠìķĦìĿ´ìĬ¤":14202,"ĠAsia":14203,"êµ¬ëĤĺ":14204,"Ġbench":14205,"Ġadvent":14206,"ĠìĦ¸ê¸Ī":14207,"Ġyounger":14208,"Ð°Ð½":14209,"à°":14210,"ļê½ĥ":14211,"Ġgif":14212,"Ġë°©ìĸ´":14213,"Ġíĵ¨":14214,"ĠDig":14215,"iana":14216,"Ġìĭ¬íķ´":14217,"Ġêµ°ëį°":14218,"ĠìĪĺë¡Ŀ":14219,"holder":14220,"Ġneurons":14221,"Ġancient":14222,"Ġëĭ¨ê¸°":14223,"ì°¨íĶ¼":14224,"Ġë³´ì¡°":14225,"Ġspeaker":14226,"ĠPage":14227,"Ġpulse":14228,"ĠêµŃìĪĺ":14229,"Ġlanguages":14230,"ë¦ħëĭĪëĭ¤":14231,"ĠTeam":14232,"ĠìĬ¤íĭ°ì»¤":14233,"ictionary":14234,"enger":14235,"Ġreaders":14236,"ê°ĳëĭĪëĭ¤":14237,"Ġloaded":14238,"Ġflood":14239,"Ġíķľë°©":14240,"Ġë³´ìĿ¸":14241,"ìĪĺìĪĺ":14242,"uant":14243,"ĠAmong":14244,"instance":14245,"ëĤĺìĿ´":14246,"Ġê³łìĨį":14247,"Ġì»¨ìħī":14248,"ĠíķľêµŃìĿ¸":14249,"iatric":14250,"Ġnerv":14251,"Det":14252,"ĠHospital":14253,"Param":14254,"Ġregime":14255,"Ġíķľìłķ":14256,"ĠGame":14257,"Ġìĺ¹":14258,"Ġtransmit":14259,"Ġdeaths":14260,"ĠìłķíĻķíŀĪ":14261,"ĠíĮĮìĿ´":14262,"Ġvariance":14263,"Ġblind":14264,"Ġintention":14265,"Ġprohib":14266,"map":14267,"ĠæĮ":14268,"ĠWilliams":14269,"ĠìĤ¬ê¸°":14270,"Ġorganized":14271,"Ġì£¼ê°Ħ":14272,"Ġìĺ¬ë¦°":14273,"Ġcorrelated":14274,"å¹":14275,"Ġë³Ģíķĺ":14276,"Ġê·¸ê³³":14277,"Ġjud":14278,"Ġëª¨ëĭĪ":14279,"ĠìĭłìĨį":14280,"Ġ**)":14281,"ĠëĮĢë³Ģ":14282,"claim":14283,"ĠíĨłë§ĪíĨł":14284,"result":14285,"ĠëĴ¤ì§ĳ":14286,"Ġbold":14287,"ĠëıĻìŀĳ":14288,"ĠëĤ´ëł¸":14289,"Ġathle":14290,"Ġobserve":14291,"Ġfighting":14292,"éĢ":14293,"Ġdogs":14294,"Ġë°ĶíĢ´":14295,"Ġaged":14296,"Ġ.\"":14297,"tc":14298,",,":14299,"aria":14300,"Ġimagine":14301,"Ġaccoun":14302,"Ġëĭ¬ì½¤":14303,"Ġìŀ¬ëĭ¨":14304,"ĠRoyal":14305,"Ġì¶ľêµ¬":14306,"Ġadjacent":14307,"Ġmoments":14308,"Ġarmy":14309,"Ġmedicine":14310,"Ġvivo":14311,"Ġsick":14312,"ëį°ìĿ´":14313,"Ġconcepts":14314,"Ġnamely":14315,"Ġfavour":14316,"ĠìĦ¤íĥķ":14317,"ĠMuse":14318,"ĠApplication":14319,"Ġìĭ¤ë§Ŀ":14320,"Ġ};":14321,"Ġì¶Ķìłķ":14322,"ository":14323,"Ġmoves":14324,"Ġì²Ńì£¼":14325,"IE":14326,"ĠìĬ¤ëŁ¬ìĽł":14327,"ĠìĿĺëıĦ":14328,"ĠìĤĲ":14329,"ĠìķĦìĽĥ":14330,"iture":14331,"Ġdependence":14332,"Ġreactions":14333,"Two":14334,"Ġêµ¬ê°Ħ":14335,"Ġleague":14336,"Ġgalax":14337,"ê³±":14338,"ĠSQL":14339,"Ġcod":14340,"ĠOhio":14341,"Ġíĸ¥ê¸°":14342,"ĠKorea":14343,"ruption":14344,"ĠíĶ¼ìķĦ":14345,"Note":14346,"riend":14347,"Ġcyl":14348,"Ġradical":14349,"Ġè»":14350,"ĠìĿ´ìŀĲ":14351,"Ġartists":14352,"Ġemit":14353,"ĠëĲ¬":14354,"ĠíĻķë¥ł":14355,"About":14356,"ĠYet":14357,"ATA":14358,"ëĮĢêµ¬":14359,"ìĿ´ë¯¸":14360,"ĠìĿ´ìĻ¸":14361,"Ġê³¨ëĵľ":14362,"annel":14363,"ĠMaster":14364,"ĠEmp":14365,"Ġ^-":14366,"ê¸°ë³¸":14367,"Ñħ":14368,"Why":14369,"Ġnab":14370,"Ġì§Ħëĭ¤":14371,"Ġfract":14372,"ĠUb":14373,"Ġì½ĶíĮħ":14374,"ĠItaly":14375,"ĠìĦ¸ìĽĮ":14376,"ĠìĹ°íľ´":14377,"ĠìĿ¼ê¹ĮìļĶ":14378,"oids":14379,"Ġë¯¹":14380,"ĠíĨµìĿ¼":14381,"Ġfacing":14382,"Ġì»¸":14383,"ĠìĥĮëĵľ":14384,"ached":14385,"ĠGlobal":14386,"isition":14387,"Ġë¹łì§Ħ":14388,"ussion":14389,"ĠìĺĪì¸¡":14390,"ë°Ń":14391,"Ġê¹ĬìĿ´":14392,"Ġmoral":14393,"Ġtough":14394,"ĠPop":14395,"Ġgeometry":14396,"Ġcolour":14397,"Ġoptimization":14398,"uated":14399,"ë°ĶìĿ´":14400,"AGE":14401,"ìķĦë§Ī":14402,"iking":14403,"Ġtypeof":14404,"Ġacet":14405,"isely":14406,"Ġë©Ķëª¨":14407,"Ġë¶Ģìŀ¥":14408,"Ġê·¸ëĤĺë§Ī":14409,"Ġimproving":14410,"ĠDid":14411,"mentation":14412,"Back":14413,"Ġëĭ¨ëıħ":14414,"Ġsight":14415,"ĠEll":14416,"ĠíĮĮìĽĮ":14417,"ĠëĮĢì²ĺ":14418,"ĠNat":14419,"win":14420,"Am":14421,"Ġadvertising":14422,"Ġom":14423,"ento":14424,"expected":14425,"Ġdebate":14426,"lers":14427,"avelength":14428,"ĠíĥĦëł¥":14429,"ĠPay":14430,"ĠTechnology":14431,"Ġsoul":14432,"Ġê°Ģì£½":14433,"Ġê¶Įë¦¬":14434,"íķµ":14435,"Ġë°©íķ´":14436,"tv":14437,"Ġsubsequently":14438,"ĠëģĿëĤľ":14439,"Ġacknowled":14440,"Ġboot":14441,"Ġfeels":14442,"uma":14443,"ãģı":14444,"ĠJewish":14445,"Ġì¶ľìŀ¥":14446,"Ġcere":14447,"=\\":14448,"Ġinhibition":14449,"Ġnewly":14450,"ket":14451,"ĠAh":14452,"Ġelected":14453,"Ġë¯¸ìĤ¬":14454,"ĠHand":14455,"ëĶ¸":14456,"weight":14457,"linear":14458,"Ġproviders":14459,"Ġconclus":14460,"ĠPerson":14461,"Ġíİ¸íķľ":14462,
[...]
